<s>	0
</s>	0
<pad>	0
<unk>	0
[INST]	0
[/INST]	0
<0x00>	0
<0x01>	0
<0x02>	0
<0x03>	0
<0x04>	0
<0x05>	0
<0x06>	0
<0x07>	0
<0x08>	0
<0x09>	0
<0x0A>	0
<0x0B>	0
<0x0C>	0
<0x0D>	0
<0x0E>	0
<0x0F>	0
<0x10>	0
<0x11>	0
<0x12>	0
<0x13>	0
<0x14>	0
<0x15>	0
<0x16>	0
<0x17>	0
<0x18>	0
<0x19>	0
<0x1A>	0
<0x1B>	0
<0x1C>	0
<0x1D>	0
<0x1E>	0
<0x1F>	0
<0x20>	0
<0x21>	0
<0x22>	0
<0x23>	0
<0x24>	0
<0x25>	0
<0x26>	0
<0x27>	0
<0x28>	0
<0x29>	0
<0x2A>	0
<0x2B>	0
<0x2C>	0
<0x2D>	0
<0x2E>	0
<0x2F>	0
<0x30>	0
<0x31>	0
<0x32>	0
<0x33>	0
<0x34>	0
<0x35>	0
<0x36>	0
<0x37>	0
<0x38>	0
<0x39>	0
<0x3A>	0
<0x3B>	0
<0x3C>	0
<0x3D>	0
<0x3E>	0
<0x3F>	0
<0x40>	0
<0x41>	0
<0x42>	0
<0x43>	0
<0x44>	0
<0x45>	0
<0x46>	0
<0x47>	0
<0x48>	0
<0x49>	0
<0x4A>	0
<0x4B>	0
<0x4C>	0
<0x4D>	0
<0x4E>	0
<0x4F>	0
<0x50>	0
<0x51>	0
<0x52>	0
<0x53>	0
<0x54>	0
<0x55>	0
<0x56>	0
<0x57>	0
<0x58>	0
<0x59>	0
<0x5A>	0
<0x5B>	0
<0x5C>	0
<0x5D>	0
<0x5E>	0
<0x5F>	0
<0x60>	0
<0x61>	0
<0x62>	0
<0x63>	0
<0x64>	0
<0x65>	0
<0x66>	0
<0x67>	0
<0x68>	0
<0x69>	0
<0x6A>	0
<0x6B>	0
<0x6C>	0
<0x6D>	0
<0x6E>	0
<0x6F>	0
<0x70>	0
<0x71>	0
<0x72>	0
<0x73>	0
<0x74>	0
<0x75>	0
<0x76>	0
<0x77>	0
<0x78>	0
<0x79>	0
<0x7A>	0
<0x7B>	0
<0x7C>	0
<0x7D>	0
<0x7E>	0
<0x7F>	0
<0x80>	0
<0x81>	0
<0x82>	0
<0x83>	0
<0x84>	0
<0x85>	0
<0x86>	0
<0x87>	0
<0x88>	0
<0x89>	0
<0x8A>	0
<0x8B>	0
<0x8C>	0
<0x8D>	0
<0x8E>	0
<0x8F>	0
<0x90>	0
<0x91>	0
<0x92>	0
<0x93>	0
<0x94>	0
<0x95>	0
<0x96>	0
<0x97>	0
<0x98>	0
<0x99>	0
<0x9A>	0
<0x9B>	0
<0x9C>	0
<0x9D>	0
<0x9E>	0
<0x9F>	0
<0xA0>	0
<0xA1>	0
<0xA2>	0
<0xA3>	0
<0xA4>	0
<0xA5>	0
<0xA6>	0
<0xA7>	0
<0xA8>	0
<0xA9>	0
<0xAA>	0
<0xAB>	0
<0xAC>	0
<0xAD>	0
<0xAE>	0
<0xAF>	0
<0xB0>	0
<0xB1>	0
<0xB2>	0
<0xB3>	0
<0xB4>	0
<0xB5>	0
<0xB6>	0
<0xB7>	0
<0xB8>	0
<0xB9>	0
<0xBA>	0
<0xBB>	0
<0xBC>	0
<0xBD>	0
<0xBE>	0
<0xBF>	0
<0xC0>	0
<0xC1>	0
<0xC2>	0
<0xC3>	0
<0xC4>	0
<0xC5>	0
<0xC6>	0
<0xC7>	0
<0xC8>	0
<0xC9>	0
<0xCA>	0
<0xCB>	0
<0xCC>	0
<0xCD>	0
<0xCE>	0
<0xCF>	0
<0xD0>	0
<0xD1>	0
<0xD2>	0
<0xD3>	0
<0xD4>	0
<0xD5>	0
<0xD6>	0
<0xD7>	0
<0xD8>	0
<0xD9>	0
<0xDA>	0
<0xDB>	0
<0xDC>	0
<0xDD>	0
<0xDE>	0
<0xDF>	0
<0xE0>	0
<0xE1>	0
<0xE2>	0
<0xE3>	0
<0xE4>	0
<0xE5>	0
<0xE6>	0
<0xE7>	0
<0xE8>	0
<0xE9>	0
<0xEA>	0
<0xEB>	0
<0xEC>	0
<0xED>	0
<0xEE>	0
<0xEF>	0
<0xF0>	0
<0xF1>	0
<0xF2>	0
<0xF3>	0
<0xF4>	0
<0xF5>	0
<0xF6>	0
<0xF7>	0
<0xF8>	0
<0xF9>	0
<0xFA>	0
<0xFB>	0
<0xFC>	0
<0xFD>	0
<0xFE>	0
<0xFF>	0
▁t	-0
▁a	-1
in	-2
he	-3
re	-4
on	-5
er	-6
▁the	-7
▁s	-8
at	-9
▁o	-10
en	-11
▁c	-12
▁w	-13
an	-14
es	-15
it	-16
or	-17
is	-18
▁p	-19
▁f	-20
▁b	-21
al	-22
ing	-23
▁an	-24
ou	-25
▁m	-26
▁d	-27
ar	-28
ed	-29
▁of	-30
▁to	-31
▁in	-32
▁and	-33
ic	-34
ion	-35
le	-36
as	-37
ro	-38
▁h	-39
▁th	-40
ent	-41
▁l	-42
▁e	-43
il	-44
ct	-45
▁n	-46
st	-47
▁T	-48
om	-49
▁re	-50
▁I	-51
el	-52
et	-53
▁g	-54
▁S	-55
▁A	-56
ve	-57
▁y	-58
▁is	-59
ut	-60
id	-61
ol	-62
ot	-63
im	-64
▁for	-65
▁C	-66
ra	-67
ow	-68
▁u	-69
ch	-70
ig	-71
▁be	-72
ur	-73
ly	-74
▁on	-75
ce	-76
ation	-77
se	-78
ay	-79
▁you	-80
am	-81
▁st	-82
ver	-83
ad	-84
▁1	-85
▁that	-86
▁M	-87
▁(	-88
ith	-89
ir	-90
ul	-91
▁P	-92
▁B	-93
▁The	-94
▁with	-95
▁it	-96
▁pro	-97
▁he	-98
▁W	-99
if	-100
▁2	-101
▁al	-102
s.	-103
▁con	-104
s,	-105
▁as	-106
▁de	-107
ter	-108
nd	-109
▁H	-110
▁wh	-111
▁v	-112
▁D	-113
▁we	-114
qu	-115
▁F	-116
um	-117
ill	-118
em	-119
od	-120
▁R	-121
ri	-122
ag	-123
▁are	-124
▁com	-125
ate	-126
un	-127
ak	-128
ab	-129
▁or	-130
pp	-131
est	-132
and	-133
her	-134
ac	-135
▁at	-136
ist	-137
os	-138
▁L	-139
▁N	-140
▁-	-141
ore	-142
us	-143
▁k	-144
▁E	-145
▁ex	-146
igh	-147
ers	-148
▁se	-149
ant	-150
ld	-151
ity	-152
▁ha	-153
ess	-154
op	-155
th	-156
ure	-157
▁ne	-158
▁G	-159
00	-160
▁r	-161
▁can	-162
rom	-163
iv	-164
ction	-165
nt	-166
▁ch	-167
ain	-168
▁was	-169
ment	-170
art	-171
▁su	-172
▁by	-173
▁O	-174
oc	-175
ies	-176
pe	-177
ort	-178
▁this	-179
ive	-180
ie	-181
▁en	-182
ight	-183
▁from	-184
res	-185
▁have	-186
▁le	-187
▁sh	-188
▁not	-189
ust	-190
e.	-191
all	-192
ud	-193
ial	-194
e,	-195
▁In	-196
▁your	-197
▁J	-198
ard	-199
per	-200
ell	-201
pt	-202
te	-203
our	-204
's	-205
ost	-206
ould	-207
▁ab	-208
end	-209
og	-210
’s	-211
▁=	-212
out	-213
pl	-214
ok	-215
##	-216
▁will	-217
ang	-218
▁pl	-219
ru	-220
rou	-221
▁j	-222
fe	-223
red	-224
ik	-225
gh	-226
▁Th	-227
▁wor	-228
ich	-229
▁do	-230
ind	-231
ome	-232
iz	-233
▁all	-234
▁ا	-235
ast	-236
ine	-237
ical	-238
▁us	-239
ide	-240
▁comp	-241
▁3	-242
▁U	-243
▁ad	-244
▁whe	-245
▁"	-246
du	-247
ear	-248
▁me	-249
ber	-250
ia	-251
▁has	-252
▁K	-253
▁qu	-254
ry	-255
▁$	-256
ack	-257
ip	-258
are	-259
ther	-260
▁but	-261
act	-262
▁im	-263
▁go	-264
ong	-265
▁out	-266
orm	-267
able	-268
ated	-269
ib	-270
▁their	-271
ans	-272
▁20	-273
cc	-274
▁un	-275
ap	-276
▁so	-277
▁res	-278
▁V	-279
▁per	-280
▁cont	-281
es,	-282
▁more	-283
ook	-284
ach	-285
▁“	-286
▁cl	-287
▁up	-288
ance	-289
▁int	-290
ult	-291
▁they	-292
ous	-293
ally	-294
▁which	-295
▁Y	-296
▁19	-297
ep	-298
ne	-299
▁my	-300
very	-301
ge	-302
es.	-303
ition	-304
ake	-305
▁inc	-306
▁app	-307
so	-308
age	-309
▁tim	-310
▁one	-311
ass	-312
ace	-313
ice	-314
av	-315
ign	-316
ire	-317
ng	-318
ile	-319
▁his	-320
ff	-321
▁te	-322
ite	-323
one	-324
▁sp	-325
▁St	-326
ond	-327
au	-328
ail	-329
▁4	-330
▁about	-331
▁ال	-332
▁man	-333
ence	-334
ub	-335
ary	-336
..	-337
▁It	-338
int	-339
ame	-340
ue	-341
ose	-342
▁dis	-343
▁our	-344
ord	-345
▁ar	-346
ens	-347
ely	-348
ase	-349
form	-350
▁other	-351
ll	-352
▁This	-353
▁5	-354
ike	-355
▁who	-356
ck	-357
vel	-358
▁fe	-359
▁work	-360
reat	-361
▁part	-362
▁ev	-363
now	-364
▁sa	-365
ick	-366
).	-367
▁Ch	-368
ations	-369
▁if	-370
▁also	-371
ount	-372
ark	-373
▁imp	-374
▁tr	-375
▁##	-376
▁sc	-377
▁We	-378
▁some	-379
ater	-380
▁there	-381
▁any	-382
▁ro	-383
▁ag	-384
y,	-385
▁201	-386
ound	-387
ree	-388
ress	-389
▁new	-390
▁its	-391
▁des	-392
▁tra	-393
▁over	-394
▁get	-395
▁off	-396
▁them	-397
▁year	-398
erv	-399
mer	-400
ents	-401
ov	-402
▁spe	-403
irst	-404
ions	-405
ove	-406
▁when	-407
▁would	-408
▁pre	-409
ob	-410
ink	-411
▁pe	-412
),	-413
ays	-414
▁He	-415
▁were	-416
▁had	-417
wo	-418
ph	-419
we	-420
▁م	-421
▁into	-422
oll	-423
▁what	-424
ren	-425
▁need	-426
▁like	-427
▁her	-428
▁been	-429
ough	-430
▁am	-431
ft	-432
▁\	-433
▁than	-434
▁rec	-435
▁know	-436
lect	-437
▁und	-438
y.	-439
rent	-440
ing,	-441
▁ph	-442
▁pr	-443
▁bet	-444
▁0	-445
▁###	-446
xt	-447
ian	-448
▁how	-449
ild	-450
▁no	-451
amp	-452
vers	-453
lic	-454
ath	-455
▁acc	-456
▁bec	-457
▁just	-458
▁–	-459
▁produ	-460
▁6	-461
▁Wh	-462
▁Re	-463
ors	-464
wn	-465
ram	-466
▁co	-467
▁time	-468
▁क	-469
rough	-470
old	-471
ish	-472
anc	-473
ing.	-474
▁af	-475
own	-476
▁em	-477
▁ب	-478
▁sy	-479
▁bl	-480
ual	-481
a,	-482
▁+	-483
▁la	-484
fect	-485
’t	-486
itt	-487
▁first	-488
erm	-489
▁inter	-490
▁و	-491
ific	-492
ory	-493
ings	-494
ople	-495
▁dif	-496
oy	-497
▁ra	-498
▁use	-499
lud	-500
ari	-501
ek	-502
▁ind	-503
▁two	-504
't	-505
ed.	-506
▁met	-507
▁may	-508
urn	-509
▁fl	-510
▁comm	-511
ons	-512
je	-513
ood	-514
▁200	-515
enc	-516
▁add	-517
▁these	-518
▁cons	-519
ric	-520
ility	-521
o,	-522
▁po	-523
▁act	-524
▁num	-525
ular	-526
▁only	-527
▁prov	-528
▁under	-529
▁people	-530
hed	-531
ont	-532
▁di	-533
▁form	-534
ah	-535
▁said	-536
ause	-537
▁As	-538
▁hel	-539
▁z	-540
ock	-541
20	-542
hen	-543
ert	-544
ان	-545
ating	-546
▁through	-547
ble	-548
ful	-549
olog	-550
round	-551
▁If	-552
▁find	-553
▁rep	-554
▁10	-555
▁she	-556
les	-557
ст	-558
▁i	-559
ature	-560
▁rel	-561
ient	-562
▁help	-563
ates	-564
oth	-565
▁pos	-566
▁such	-567
ys	-568
iss	-569
▁most	-570
▁stud	-571
ew	-572
▁includ	-573
▁where	-574
er,	-575
get	-576
▁You	-577
rit	-578
▁7	-579
▁ac	-580
stru	-581
19	-582
▁bu	-583
▁make	-584
stem	-585
ade	-586
ning	-587
▁inv	-588
▁att	-589
▁che	-590
▁every	-591
▁back	-592
▁reg	-593
▁п	-594
ution	-595
row	-596
ject	-597
▁fun	-598
cess	-599
ities	-600
▁then	-601
▁sol	-602
fore	-603
▁pol	-604
ener	-605
▁dec	-606
▁look	-607
▁8	-608
iew	-609
▁mod	-610
▁ent	-611
ed,	-612
pect	-613
▁want	-614
rib	-615
▁sub	-616
ible	-617
▁Al	-618
elf	-619
uch	-620
▁well	-621
▁col	-622
▁rem	-623
▁diffe	-624
▁ke	-625
▁|	-626
day	-627
▁ass	-628
▁Res	-629
▁could	-630
▁Se	-631
ased	-632
▁x	-633
▁spec	-634
▁An	-635
▁De	-636
▁sur	-637
▁For	-638
▁should	-639
a.	-640
▁set	-641
▁sec	-642
▁And	-643
▁Un	-644
ational	-645
▁Pro	-646
ank	-647
▁after	-648
pon	-649
▁det	-650
▁equ	-651
▁ob	-652
und	-653
io	-654
er.	-655
gan	-656
▁way	-657
▁car	-658
▁в	-659
▁fin	-660
▁many	-661
tt	-662
ative	-663
▁sm	-664
ork	-665
▁supp	-666
ident	-667
▁trans	-668
ise	-669
ange	-670
ween	-671
com	-672
omet	-673
▁each	-674
▁sim	-675
▁Com	-676
erson	-677
▁9	-678
▁val	-679
▁play	-680
action	-681
de	-682
▁even	-683
ract	-684
ollow	-685
ict	-686
▁*	-687
на	-688
▁&	-689
▁very	-690
up	-691
▁between	-692
tern	-693
ious	-694
▁min	-695
▁br	-696
az	-697
▁don	-698
uring	-699
▁exper	-700
ward	-701
▁day	-702
ower	-703
ces	-704
▁av	-705
▁serv	-706
ax	-707
iel	-708
formation	-709
ро	-710
ра	-711
▁now	-712
hing	-713
ting	-714
struction	-715
▁number	-716
eng	-717
000	-718
ption	-719
ata	-720
▁see	-721
10	-722
▁good	-723
hes	-724
▁[	-725
▁pres	-726
▁right	-727
▁high	-728
▁system	-729
aking	-730
▁To	-731
ied	-732
▁How	-733
arch	-734
ven	-735
ни	-736
▁him	-737
▁because	-738
▁start	-739
ix	-740
но	-741
▁/	-742
▁ins	-743
ize	-744
ponse	-745
▁lif	-746
velop	-747
▁long	-748
ug	-749
ros	-750
▁gu	-751
let	-752
▁did	-753
ull	-754
▁does	-755
▁inte	-756
▁follow	-757
its	-758
▁using	-759
ience	-760
▁But	-761
▁exp	-762
cent	-763
ко	-764
other	-765
▁cur	-766
▁disc	-767
ier	-768
▁د	-769
▁del	-770
▁mon	-771
▁char	-772
ince	-773
als	-774
▁{	-775
ement	-776
▁requ	-777
▁bel	-778
▁much	-779
▁स	-780
▁think	-781
▁down	-782
▁str	-783
▁used	-784
ool	-785
▁point	-786
▁def	-787
▁own	-788
▁ret	-789
erg	-790
ily	-791
air	-792
ole	-793
▁different	-794
iqu	-795
▁great	-796
ation.	-797
hip	-798
any	-799
▁đ	-800
chn	-801
▁med	-802
alk	-803
▁There	-804
ments	-805
▁product	-806
▁.	-807
ex	-808
▁Ar	-809
▁show	-810
▁read	-811
ics	-812
way	-813
▁end	-814
▁op	-815
▁mem	-816
▁Q	-817
roup	-818
ited	-819
uc	-820
▁call	-821
cul	-822
▁art	-823
▁dist	-824
▁lead	-825
ism	-826
ason	-827
▁sign	-828
ال	-829
▁18	-830
▁again	-831
▁inst	-832
▁here	-833
...	-834
pr	-835
▁while	-836
ues	-837
▁result	-838
▁loc	-839
▁take	-840
▁el	-841
▁'	-842
▁person	-843
▁before	-844
ation,	-845
▁those	-846
ample	-847
▁vari	-848
▁mat	-849
▁giv	-850
ер	-851
▁function	-852
▁being	-853
▁information	-854
▁prog	-855
arn	-856
▁cor	-857
▁gener	-858
▁bus	-859
ced	-860
ار	-861
▁Be	-862
ron	-863
▁cre	-864
ene	-865
▁ext	-866
der	-867
dition	-868
alth	-869
▁What	-870
o.	-871
▁world	-872
||	-873
▁both	-874
ually	-875
ines	-876
▁hand	-877
ffect	-878
s:	-879
▁ty	-880
▁ser	-881
▁New	-882
▁best	-883
▁appro	-884
▁fact	-885
land	-886
▁elect	-887
cl	-888
rest	-889
▁say	-890
▁pub	-891
▁•	-892
▁proper	-893
▁Le	-894
▁1.	-895
▁sk	-896
ern	-897
▁с	-898
▁sl	-899
rac	-900
ox	-901
▁12	-902
ield	-903
▁par	-904
▁ed	-905
▁develop	-906
▁fam	-907
▁Sh	-908
▁ت	-909
▁ह	-910
n’t	-911
ale	-912
▁Ad	-913
▁म	-914
▁week	-915
▁est	-916
▁gl	-917
ins	-918
▁real	-919
ann	-920
riv	-921
▁Cl	-922
ten	-923
▁ve	-924
▁made	-925
ave	-926
irect	-927
ung	-928
▁gra	-929
--	-930
ically	-931
ather	-932
aw	-933
ever	-934
ices	-935
▁Z	-936
▁design	-937
▁dep	-938
▁Response	-939
▁import	-940
led	-941
▁aut	-942
be	-943
ple	-944
▁Instruction	-945
arm	-946
▁last	-947
▁vis	-948
-1	-949
ts	-950
read	-951
-t	-952
iness	-953
▁same	-954
▁incre	-955
blem	-956
line	-957
▁On	-958
▁partic	-959
▁mark	-960
▁ف	-961
ential	-962
▁around	-963
con	-964
akes	-965
put	-966
chool	-967
▁found	-968
▁effect	-969
n't	-970
ime	-971
▁count	-972
го	-973
ired	-974
▁process	-975
ouse	-976
ator	-977
▁though	-978
▁They	-979
▁water	-980
▁fil	-981
ional	-982
cept	-983
▁inf	-984
);	-985
▁reaction	-986
▁book	-987
▁poss	-988
ffic	-989
▁provid	-990
ym	-991
▁lar	-992
▁Ex	-993
▁years	-994
▁group	-995
ized	-996
▁cent	-997
ability	-998
oh	-999
aj	-1000
uss	-1001
50	-1002
▁somet	-1003
▁techn	-1004
vent	-1005
{\	-1006
▁quest	-1007
i,	-1008
▁program	-1009
-b	-1010
▁problem	-1011
▁et	-1012
▁}	-1013
-s	-1014
▁2.	-1015
ivers	-1016
▁still	-1017
ها	-1018
gg	-1019
ست	-1020
orn	-1021
ash	-1022
oun	-1023
▁three	-1024
1,	-1025
cture	-1026
man	-1027
oci	-1028
▁cal	-1029
stand	-1030
▁प	-1031
ral	-1032
▁run	-1033
view	-1034
▁:	-1035
▁stand	-1036
▁list	-1037
▁support	-1038
▁#	-1039
▁cour	-1040
riend	-1041
ital	-1042
را	-1043
▁really	-1044
ty	-1045
▁0.	-1046
▁let	-1047
▁top	-1048
ton	-1049
▁tem	-1050
▁post	-1051
ving	-1052
$$	-1053
다.	-1054
ars	-1055
ly,	-1056
▁prof	-1057
▁tri	-1058
ium	-1059
cial	-1060
ural	-1061
meric	-1062
▁Ph	-1063
▁care	-1064
▁main	-1065
▁ref	-1066
▁stru	-1067
ved	-1068
ined	-1069
▁second	-1070
▁Pl	-1071
ration	-1072
^2	-1073
▁cle	-1074
▁data	-1075
▁I'	-1076
▁eas	-1077
▁pur	-1078
▁gr	-1079
्र	-1080
ality	-1081
ider	-1082
bs	-1083
▁es	-1084
1.	-1085
ode	-1086
▁commun	-1087
▁expl	-1088
▁during	-1089
ute	-1090
▁pat	-1091
▁going	-1092
▁I’	-1093
12	-1094
▁Sc	-1095
ен	-1096
ва	-1097
ross	-1098
inc	-1099
▁conf	-1100
▁ع	-1101
els	-1102
▁pass	-1103
▁small	-1104
▁place	-1105
ways	-1106
ner	-1107
r.	-1108
▁allow	-1109
▁contin	-1110
0.	-1111
▁child	-1112
att	-1113
lex	-1114
▁Con	-1115
self	-1116
ately	-1117
,000	-1118
ли	-1119
rence	-1120
gin	-1121
aterial	-1122
ittle	-1123
▁team	-1124
▁15	-1125
here	-1126
▁must	-1127
▁When	-1128
lease	-1129
▁class	-1130
▁cho	-1131
▁All	-1132
▁So	-1133
▁ele	-1134
▁plan	-1135
yl	-1136
ustom	-1137
▁199	-1138
▁few	-1139
rop	-1140
▁adv	-1141
ль	-1142
ret	-1143
▁Fr	-1144
▁Is	-1145
oad	-1146
▁Now	-1147
▁perform	-1148
ense	-1149
ages	-1150
▁happ	-1151
▁stat	-1152
err	-1153
ared	-1154
▁sit	-1155
ger	-1156
en,	-1157
▁cost	-1158
over	-1159
▁energ	-1160
▁ear	-1161
▁without	-1162
ision	-1163
▁Af	-1164
▁organ	-1165
ke	-1166
▁Americ	-1167
▁She	-1168
▁о	-1169
ets	-1170
ailable	-1171
▁wr	-1172
ior	-1173
isc	-1174
▁it.	-1175
▁hour	-1176
ze	-1177
ij	-1178
oot	-1179
rol	-1180
port	-1181
▁3.	-1182
hod	-1183
▁const	-1184
inal	-1185
yn	-1186
ية	-1187
.,	-1188
▁bas	-1189
▁chang	-1190
▁Bl	-1191
▁rest	-1192
ify	-1193
▁lot	-1194
▁business	-1195
▁test	-1196
ever,	-1197
▁tot	-1198
▁light	-1199
▁current	-1200
▁ca	-1201
▁cas	-1202
▁term	-1203
ка	-1204
▁another	-1205
▁month	-1206
▁oper	-1207
то	-1208
▁pot	-1209
atch	-1210
▁$$	-1211
▁home	-1212
▁try	-1213
▁prote	-1214
iron	-1215
▁interest	-1216
ness	-1217
▁feel	-1218
ploy	-1219
en.	-1220
yd	-1221
▁ک	-1222
▁better	-1223
▁level	-1224
ants	-1225
▁state	-1226
of	-1227
▁direct	-1228
▁ide	-1229
▁hum	-1230
bers	-1231
ivity	-1232
▁X	-1233
▁return	-1234
ivid	-1235
hem	-1236
▁health	-1237
18	-1238
▁opt	-1239
▁might	-1240
▁public	-1241
▁mus	-1242
▁since	-1243
▁little	-1244
ertain	-1245
ки	-1246
▁including	-1247
▁Ind	-1248
▁Te	-1249
The	-1250
}}	-1251
▁material	-1252
▁life	-1253
▁En	-1254
▁open	-1255
aly	-1256
▁keep	-1257
▁word	-1258
ining	-1259
ctor	-1260
ри	-1261
▁come	-1262
ished	-1263
ies,	-1264
ization	-1265
▁friend	-1266
ody	-1267
sc	-1268
▁At	-1269
▁free	-1270
▁pop	-1271
▁given	-1272
work	-1273
ies.	-1274
▁available	-1275
ers.	-1276
▁next	-1277
ion.	-1278
▁dem	-1279
▁always	-1280
ures	-1281
▁أ	-1282
▁non	-1283
ott	-1284
▁—	-1285
_{	-1286
ote	-1287
▁love	-1288
on,	-1289
▁ask	-1290
less	-1291
▁16	-1292
▁Or	-1293
▁mole	-1294
ER	-1295
▁iss	-1296
▁ن	-1297
▁head	-1298
▁س	-1299
30	-1300
▁report	-1301
▁opp	-1302
▁bo	-1303
▁build	-1304
▁put	-1305
та	-1306
-p	-1307
-f	-1308
2.	-1309
(x	-1310
▁old	-1311
▁That	-1312
▁fr	-1313
’re	-1314
▁important	-1315
▁bre	-1316
▁turn	-1317
▁understand	-1318
▁within	-1319
▁following	-1320
ering	-1321
ers,	-1322
15	-1323
▁der	-1324
▁beh	-1325
app	-1326
ively	-1327
▁phot	-1328
▁impro	-1329
▁cap	-1330
▁market	-1331
▁something	-1332
▁mov	-1333
rist	-1334
▁д	-1335
isk	-1336
ре	-1337
ird	-1338
__	-1339
-c	-1340
▁и	-1341
3.	-1342
ology	-1343
▁‘	-1344
▁custom	-1345
ion,	-1346
oss	-1347
▁With	-1348
ters	-1349
▁rece	-1350
ists	-1351
ves	-1352
lu	-1353
▁it’s	-1354
▁unt	-1355
ateg	-1356
ane	-1357
▁Sp	-1358
ло	-1359
▁है	-1360
▁mult	-1361
ety	-1362
ware	-1363
▁never	-1364
▁के	-1365
tain	-1366
atic	-1367
▁hist	-1368
▁liv	-1369
sw	-1370
rem	-1371
reen	-1372
ienc	-1373
.”	-1374
yle	-1375
▁hard	-1376
▁school	-1377
par	-1378
aut	-1379
nh	-1380
▁example	-1381
▁power	-1382
▁leg	-1383
▁change	-1384
▁seem	-1385
▁Tr	-1386
▁<	-1387
▁big	-1388
▁ver	-1389
ument	-1390
face	-1391
▁less	-1392
thing	-1393
▁got	-1394
min	-1395
▁These	-1396
▁method	-1397
ام	-1398
▁cr	-1399
ling	-1400
ла	-1401
▁applic	-1402
▁30	-1403
▁men	-1404
▁bro	-1405
right	-1406
i.	-1407
▁things	-1408
ogra	-1409
▁з	-1410
▁Qu	-1411
▁provide	-1412
▁tru	-1413
▁gam	-1414
▁grow	-1415
▁propert	-1416
▁sure	-1417
▁project	-1418
▁redu	-1419
▁mil	-1420
frac	-1421
16	-1422
2,	-1423
▁line	-1424
IN	-1425
▁rese	-1426
pos	-1427
▁exc	-1428
▁present	-1429
▁invest	-1430
▁addition	-1431
go	-1432
▁energy	-1433
ma	-1434
▁chem	-1435
ें	-1436
▁order	-1437
▁pay	-1438
gen	-1439
▁van	-1440
▁14	-1441
▁pa	-1442
agn	-1443
▁17	-1444
▁на	-1445
ember	-1446
▁در	-1447
▁Mar	-1448
ات	-1449
▁sing	-1450
▁$\	-1451
▁rate	-1452
▁stre	-1453
▁determ	-1454
oor	-1455
irc	-1456
14	-1457
▁sal	-1458
▁wom	-1459
ieve	-1460
▁experience	-1461
oint	-1462
-d	-1463
▁step	-1464
сь	-1465
ार	-1466
▁give	-1467
▁ann	-1468
▁calcul	-1469
▁sum	-1470
."	-1471
▁law	-1472
ند	-1473
▁against	-1474
▁м	-1475
▁too	-1476
▁full	-1477
▁four	-1478
▁den	-1479
▁total	-1480
▁win	-1481
ination	-1482
por	-1483
▁Col	-1484
▁ش	-1485
viron	-1486
hor	-1487
rodu	-1488
во	-1489
med	-1490
▁Am	-1491
▁fac	-1492
eb	-1493
▁по	-1494
▁My	-1495
▁dev	-1496
ope	-1497
▁prob	-1498
uck	-1499
▁mean	-1500
itive	-1501
▁manag	-1502
▁condition	-1503
200	-1504
▁resp	-1505
▁,	-1506
▁able	-1507
vern	-1508
▁lik	-1509
li	-1510
▁conc	-1511
iversity	-1512
▁don’t	-1513
urs	-1514
ccess	-1515
▁possible	-1516
▁lim	-1517
▁structure	-1518
ique	-1519
▁eng	-1520
uk	-1521
ocial	-1522
▁invol	-1523
▁event	-1524
ec	-1525
▁it's	-1526
▁vol	-1527
the	-1528
2)	-1529
to	-1530
▁left	-1531
▁value	-1532
▁model	-1533
▁4.	-1534
}{	-1535
math	-1536
ler	-1537
▁ل	-1538
▁occ	-1539
▁conne	-1540
▁dra	-1541
ified	-1542
▁area	-1543
▁mill	-1544
ai	-1545
ortun	-1546
omm	-1547
▁often	-1548
ray	-1549
▁based	-1550
AT	-1551
25	-1552
▁الم	-1553
▁feature	-1554
▁view	-1555
▁US	-1556
▁local	-1557
17	-1558
enn	-1559
br	-1560
son	-1561
ength	-1562
▁charact	-1563
-m	-1564
▁making	-1565
▁students	-1566
▁specific	-1567
ains	-1568
vironment	-1569
're	-1570
▁company	-1571
▁25	-1572
resent	-1573
ission	-1574
▁rad	-1575
tic	-1576
fer	-1577
play	-1578
▁que	-1579
veral	-1580
lement	-1581
▁creat	-1582
▁However,	-1583
▁field	-1584
t.	-1585
le,	-1586
▁intern	-1587
▁Ste	-1588
ور	-1589
▁away	-1590
▁prom	-1591
▁100	-1592
3,	-1593
oid	-1594
):	-1595
▁في	-1596
S.	-1597
ia,	-1598
ci	-1599
▁meet	-1600
▁ज	-1601
ead	-1602
ле	-1603
▁mar	-1604
▁comb	-1605
▁fre	-1606
▁consider	-1607
▁ident	-1608
lection	-1609
an,	-1610
या	-1611
ably	-1612
ні	-1613
iver	-1614
▁side	-1615
ти	-1616
▁govern	-1617
ump	-1618
ON	-1619
ording	-1620
gether	-1621
perature	-1622
▁together	-1623
▁Comm	-1624
▁don't	-1625
▁Ne	-1626
ament	-1627
▁cell	-1628
eter	-1629
ered	-1630
▁desc	-1631
af	-1632
alf	-1633
▁special	-1634
▁من	-1635
▁hig	-1636
▁nam	-1637
ending	-1638
11	-1639
▁employ	-1640
▁bi	-1641
▁sw	-1642
▁pract	-1643
ask	-1644
outh	-1645
m.	-1646
rug	-1647
ww	-1648
▁learn	-1649
^{	-1650
▁One	-1651
aster	-1652
▁Car	-1653
▁App	-1654
▁include	-1655
▁By	-1656
▁potential	-1657
conom	-1658
اد	-1659
▁198	-1660
▁typ	-1661
▁room	-1662
ohn	-1663
}$	-1664
▁thing	-1665
▁meas	-1666
ither	-1667
ین	-1668
▁food	-1669
▁ge	-1670
▁standard	-1671
▁orig	-1672
▁access	-1673
▁May	-1674
val	-1675
rad	-1676
ume	-1677
sh	-1678
▁course	-1679
ada	-1680
▁night	-1681
ipp	-1682
ly.	-1683
▁expect	-1684
itor	-1685
ta	-1686
ged	-1687
▁Can	-1688
use	-1689
▁called	-1690
▁individ	-1691
orth	-1692
▁talk	-1693
▁past	-1694
lar	-1695
▁writ	-1696
▁treat	-1697
▁solution	-1698
▁में	-1699
▁reason	-1700
▁until	-1701
ity.	-1702
ör	-1703
imes	-1704
▁control	-1705
▁hom	-1706
▁Su	-1707
ention	-1708
▁today	-1709
idence	-1710
▁case	-1711
augh	-1712
▁cat	-1713
▁Man	-1714
vious	-1715
▁along	-1716
ina	-1717
▁check	-1718
▁job	-1719
not	-1720
▁व	-1721
▁(19	-1722
ait	-1723
▁family	-1724
▁tre	-1725
▁offic	-1726
ity,	-1727
▁several	-1728
▁game	-1729
▁working	-1730
le.	-1731
▁dat	-1732
▁Do	-1733
▁move	-1734
▁Here	-1735
▁vers	-1736
▁certain	-1737
▁dri	-1738
▁create	-1739
▁bit	-1740
▁far	-1741
▁kind	-1742
▁Cent	-1743
-l	-1744
ring	-1745
sk	-1746
▁indust	-1747
irl	-1748
▁days	-1749
▁대	-1750
lish	-1751
▁answ	-1752
▁signific	-1753
▁known	-1754
▁11	-1755
▁means	-1756
▁why	-1757
▁land	-1758
▁temperature	-1759
▁low	-1760
▁account	-1761
ised	-1762
▁>	-1763
▁short	-1764
arent	-1765
4.	-1766
▁Eng	-1767
▁ه	-1768
▁pain	-1769
▁Me	-1770
▁recent	-1771
▁children	-1772
▁mom	-1773
▁space	-1774
ttp	-1775
fic	-1776
▁tell	-1777
▁particular	-1778
▁Christ	-1779
▁stor	-1780
ajor	-1781
zy	-1782
ين	-1783
▁large	-1784
▁environment	-1785
▁human	-1786
▁da	-1787
▁least	-1788
▁अ	-1789
▁question	-1790
▁enough	-1791
ift	-1792
den	-1793
al,	-1794
ides	-1795
ны	-1796
▁looking	-1797
▁near	-1798
uro	-1799
▁due	-1800
ape	-1801
▁fore	-1802
ients	-1803
OR	-1804
▁individual	-1805
nes	-1806
ored	-1807
▁After	-1808
0,	-1809
▁having	-1810
▁online	-1811
▁Pr	-1812
ource	-1813
▁abs	-1814
▁house	-1815
▁air	-1816
▁type	-1817
iment	-1818
▁Cal	-1819
sel	-1820
ulation	-1821
ня	-1822
▁به	-1823
▁profess	-1824
▁affect	-1825
▁Fl	-1826
▁University	-1827
▁comput	-1828
▁vide	-1829
c.	-1830
iod	-1831
▁Im	-1832
▁ant	-1833
ود	-1834
ES	-1835
▁research	-1836
▁detail	-1837
▁webs	-1838
ference	-1839
▁strong	-1840
▁bene	-1841
▁mone	-1842
ctions	-1843
mb	-1844
▁John	-1845
text	-1846
▁red	-1847
▁ess	-1848
▁net	-1849
urther	-1850
▁“I	-1851
▁nh	-1852
ocus	-1853
▁press	-1854
▁fut	-1855
aim	-1856
▁Our	-1857
▁So,	-1858
▁ey	-1859
ograph	-1860
ush	-1861
▁Cont	-1862
▁Ab	-1863
na	-1864
ream	-1865
pecial	-1866
5.	-1867
AR	-1868
да	-1869
ny	-1870
ency	-1871
▁cou	-1872
▁rele	-1873
/m	-1874
▁alread	-1875
ats	-1876
gr	-1877
▁season	-1878
ster	-1879
▁ब	-1880
▁makes	-1881
र्	-1882
1)	-1883
▁become	-1884
▁success	-1885
▁concent	-1886
не	-1887
▁lo	-1888
▁God	-1889
▁13	-1890
▁social	-1891
13	-1892
▁said.	-1893
▁phys	-1894
▁above	-1895
▁surface	-1896
る。	-1897
etic	-1898
▁name	-1899
▁(C	-1900
▁ever	-1901
-2	-1902
avor	-1903
▁hold	-1904
▁24	-1905
frac{	-1906
s)	-1907
osp	-1908
che	-1909
org	-1910
duct	-1911
",	-1912
▁record	-1913
▁Let	-1914
▁enc	-1915
▁die	-1916
▁compan	-1917
olution	-1918
ives	-1919
▁б	-1920
▁mass	-1921
ney	-1922
▁various	-1923
▁I'm	-1924
joy	-1925
▁Per	-1926
▁Des	-1927
▁key	-1928
▁link	-1929
▁du	-1930
▁amount	-1931
▁music	-1932
▁init	-1933
t,	-1934
▁log	-1935
▁complex	-1936
▁ter	-1937
те	-1938
verage	-1939
ising	-1940
▁quality	-1941
une	-1942
▁No	-1943
ured	-1944
▁fund	-1945
▁express	-1946
,”	-1947
osed	-1948
▁clear	-1949
▁tar	-1950
▁nat	-1951
▁American	-1952
▁already	-1953
▁न	-1954
▁deg	-1955
▁position	-1956
▁mind	-1957
imal	-1958
▁"I	-1959
8.	-1960
ment.	-1961
//	-1962
ão	-1963
▁complet	-1964
▁across	-1965
▁represent	-1966
ви	-1967
istic	-1968
6.	-1969
rm	-1970
ended	-1971
▁service	-1972
▁major	-1973
▁Rep	-1974
▁197	-1975
▁visit	-1976
▁50	-1977
in,	-1978
▁ut	-1979
▁«	-1980
▁이	-1981
irm	-1982
▁drug	-1983
ми	-1984
▁text	-1985
▁significant	-1986
))	-1987
▁percent	-1988
▁film	-1989
▁soft	-1990
 —	-1991
alys	-1992
▁I’m	-1993
ks	-1994
ilar	-1995
as,	-1996
▁Br	-1997
▁ball	-1998
uf	-1999
▁vi	-2000
▁Now,	-2001
▁द	-2002
▁mot	-2003
by	-2004
aring	-2005
60	-2006
▁country	-2007
▁port	-2008
▁require	-2009
▁heart	-2010
▁minut	-2011
ول	-2012
▁ens	-2013
▁ج	-2014
age.	-2015
▁آ	-2016
··	-2017
▁equation	-2018
▁tak	-2019
aff	-2020
et.	-2021
mber	-2022
▁molec	-2023
▁ce	-2024
▁Pol	-2025
▁period	-2026
▁educ	-2027
▁В	-2028
▁discuss	-2029
▁once	-2030
ley	-2031
▁5.	-2032
▁у	-2033
vert	-2034
▁il	-2035
▁camp	-2036
▁U.	-2037
▁improve	-2038
▁card	-2039
▁actually	-2040
▁time.	-2041
▁lab	-2042
ान	-2043
▁activ	-2044
▁Not	-2045
▁exist	-2046
▁super	-2047
▁och	-2048
ên	-2049
for	-2050
sp	-2051
roll	-2052
ourn	-2053
aps	-2054
wh	-2055
▁personal	-2056
ino	-2057
▁focus	-2058
AN	-2059
is,	-2060
.com	-2061
9.	-2062
▁review	-2063
▁Med	-2064
▁bar	-2065
▁effic	-2066
▁increas	-2067
▁pack	-2068
ows	-2069
ister	-2070
▁It’s	-2071
me	-2072
▁thought	-2073
et,	-2074
▁study	-2075
▁gen	-2076
▁از	-2077
▁--	-2078
▁circ	-2079
▁Ass	-2080
▁respect	-2081
ی‌	-2082
7.	-2083
▁electron	-2084
▁break	-2085
▁item	-2086
wards	-2087
lete	-2088
▁half	-2089
▁properties	-2090
ون	-2091
▁ح	-2092
▁below	-2093
▁priv	-2094
str	-2095
▁econom	-2096
imate	-2097
▁future	-2098
▁er	-2099
▁Intern	-2100
▁common	-2101
ribut	-2102
▁times	-2103
ilities	-2104
▁dou	-2105
▁later	-2106
▁र	-2107
▁single	-2108
▁ق	-2109
rie	-2110
▁famil	-2111
stit	-2112
ched	-2113
▁artic	-2114
ury	-2115
▁says	-2116
▁came	-2117
side	-2118
▁length	-2119
▁getting	-2120
▁ach	-2121
▁enjoy	-2122
▁tool	-2123
amb	-2124
▁cult	-2125
ples	-2126
▁polit	-2127
▁select	-2128
▁ang	-2129
plic	-2130
most	-2131
chan	-2132
▁travel	-2133
ived	-2134
ydro	-2135
ots	-2136
ara	-2137
▁higher	-2138
▁La	-2139
▁done	-2140
ands	-2141
▁poly	-2142
ın	-2143
rap	-2144
ance,	-2145
▁war	-2146
▁young	-2147
ations.	-2148
ids	-2149
ibr	-2150
▁hours	-2151
ment,	-2152
▁opportun	-2153
▁begin	-2154
▁squ	-2155
▁appear	-2156
▁quick	-2157
▁buy	-2158
ances	-2159
erc	-2160
ife	-2161
▁comes	-2162
ges	-2163
ای	-2164
▁Ge	-2165
ay,	-2166
opp	-2167
rict	-2168
ibility	-2169
6,	-2170
▁file	-2171
▁walk	-2172
▁relations	-2173
▁took	-2174
ery	-2175
ule	-2176
▁either	-2177
▁và	-2178
▁share	-2179
▁П	-2180
▁corre	-2181
▁chall	-2182
▁neg	-2183
▁email	-2184
▁author	-2185
new	-2186
oph	-2187
3)	-2188
uff	-2189
angu	-2190
▁beaut	-2191
▁ste	-2192
bon	-2193
▁dan	-2194
▁crit	-2195
▁bir	-2196
imum	-2197
▁wind	-2198
▁Some	-2199
(x)	-2200
al.	-2201
ief	-2202
ober	-2203
▁First	-2204
▁contact	-2205
▁l'	-2206
lished	-2207
ama	-2208
}\	-2209
▁live	-2210
▁Tra	-2211
ula	-2212
▁...	-2213
▁offer	-2214
St	-2215
▁Your	-2216
▁search	-2217
yc	-2218
▁contain	-2219
ries	-2220
▁El	-2221
▁doing	-2222
▁Gu	-2223
▁obs	-2224
▁simple	-2225
▁cut	-2226
ript	-2227
orld	-2228
▁continu	-2229
ia.	-2230
▁sat	-2231
4,	-2232
ee	-2233
ों	-2234
▁it,	-2235
or,	-2236
40	-2237
▁self	-2238
▁results	-2239
ice.	-2240
▁pick	-2241
▁influ	-2242
book	-2243
!!	-2244
ux	-2245
्य	-2246
oard	-2247
▁perfect	-2248
▁dr	-2249
▁mol	-2250
▁products	-2251
▁whether	-2252
5,	-2253
bl	-2254
▁won	-2255
▁Sy	-2256
▁went	-2257
AS	-2258
cing	-2259
▁impact	-2260
▁а	-2261
▁among	-2262
лі	-2263
iet	-2264
▁Em	-2265
▁size	-2266
▁required	-2267
▁site	-2268
▁Ag	-2269
ally,	-2270
▁dig	-2271
▁Since	-2272
izing	-2273
▁print	-2274
▁It's	-2275
idd	-2276
▁remain	-2277
▁them.	-2278
▁constant	-2279
▁http	-2280
iter	-2281
▁final	-2282
▁Go	-2283
▁five	-2284
▁body	-2285
eder	-2286
▁risk	-2287
▁mess	-2288
part	-2289
▁content	-2290
▁Jan	-2291
▁С	-2292
▁easy	-2293
8,	-2294
▁sound	-2295
▁err	-2296
▁tw	-2297
▁further	-2298
▁compet	-2299
▁respons	-2300
22	-2301
▁hot	-2302
▁pred	-2303
▁Min	-2304
▁production	-2305
room	-2306
▁Pres	-2307
-h	-2308
▁U.S.	-2309
▁weight	-2310
های	-2311
▁character	-2312
kt	-2313
▁pie	-2314
ه‌	-2315
▁money	-2316
9,	-2317
▁else	-2318
▁object	-2319
▁target	-2320
رو	-2321
▁time,	-2322
load	-2323
lin	-2324
▁face	-2325
▁path	-2326
,"	-2327
▁doc	-2328
IS	-2329
▁members	-2330
▁story	-2331
▁United	-2332
though	-2333
istry	-2334
▁son	-2335
ogn	-2336
▁range	-2337
▁million	-2338
▁student	-2339
▁increase	-2340
▁strateg	-2341
7,	-2342
är	-2343
oon	-2344
▁happen	-2345
▁bond	-2346
urch	-2347
▁bring	-2348
▁His	-2349
us,	-2350
▁bal	-2351
▁York	-2352
reg	-2353
▁prim	-2354
▁histor	-2355
▁needs	-2356
▁kh	-2357
----	-2358
▁necess	-2359
▁chemical	-2360
()	-2361
place	-2362
▁deal	-2363
▁pri	-2364
▁react	-2365
▁early	-2366
▁plac	-2367
o-	-2368
▁benef	-2369
cted	-2370
▁भ	-2371
▁sugg	-2372
▁government	-2373
▁aff	-2374
illed	-2375
ply	-2376
▁lat	-2377
▁defin	-2378
▁suggest	-2379
ills	-2380
▁services	-2381
ones	-2382
▁Us	-2383
▁los	-2384
``	-2385
urope	-2386
▁na	-2387
▁خ	-2388
▁example,	-2389
’ll	-2390
▁(A	-2391
▁Gr	-2392
▁development	-2393
ilt	-2394
ging	-2395
▁multip	-2396
▁moment	-2397
لى	-2398
▁network	-2399
▁started	-2400
rew	-2401
▁coll	-2402
gu	-2403
▁exam	-2404
국의	-2405
▁relationship	-2406
▁acid	-2407
ся	-2408
▁told	-2409
left	-2410
▁While	-2411
▁city	-2412
▁quant	-2413
unch	-2414
anced	-2415
▁Int	-2416
▁(S	-2417
ance.	-2418
age,	-2419
lt	-2420
ate,	-2421
hib	-2422
▁action	-2423
▁fall	-2424
orts	-2425
▁Bro	-2426
elt	-2427
irt	-2428
We	-2429
▁Che	-2430
ublic	-2431
▁Ke	-2432
Cl	-2433
eth	-2434
▁Part	-2435
▁video	-2436
▁mechan	-2437
▁Fin	-2438
leg	-2439
n,	-2440
▁store	-2441
▁general	-2442
िक	-2443
iam	-2444
▁taking	-2445
ification	-2446
▁tax	-2447
▁entire	-2448
EN	-2449
▁believe	-2450
▁hydro	-2451
▁dom	-2452
▁paper	-2453
▁yet	-2454
▁Sch	-2455
▁polic	-2456
ological	-2457
itch	-2458
ball	-2459
▁1,	-2460
▁Comp	-2461
▁norm	-2462
▁women	-2463
▁similar	-2464
ien	-2465
II	-2466
てい	-2467
ма	-2468
▁color	-2469
▁Ed	-2470
▁points	-2471
▁Bar	-2472
▁industry	-2473
▁table	-2474
ison	-2475
gest	-2476
i-	-2477
▁yang	-2478
▁natural	-2479
alysis	-2480
▁role	-2481
obal	-2482
▁whole	-2483
ado	-2484
imately	-2485
▁div	-2486
▁claim	-2487
opy	-2488
▁purch	-2489
ony	-2490
до	-2491
cer	-2492
▁describ	-2493
AL	-2494
ribution	-2495
80	-2496
rain	-2497
▁More	-2498
ps	-2499
ди	-2500
▁seen	-2501
▁Pe	-2502
▁Just	-2503
-0	-2504
ру	-2505
▁rather	-2506
▁sens	-2507
▁ground	-2508
▁het	-2509
".	-2510
▁someone	-2511
▁sent	-2512
▁का	-2513
▁gas	-2514
▁takes	-2515
ancial	-2516
▁upd	-2517
▁matter	-2518
▁lay	-2519
ations,	-2520
▁cra	-2521
▁clos	-2522
▁Post	-2523
▁atom	-2524
▁Dep	-2525
▁third	-2526
▁Reg	-2527
▁max	-2528
co	-2529
▁miss	-2530
▁إ	-2531
▁you’re	-2532
▁community	-2533
▁consum	-2534
pecially	-2535
Th	-2536
▁Co	-2537
▁eff	-2538
▁Mc	-2539
ledge	-2540
▁stay	-2541
igure	-2542
ficult	-2543
("	-2544
▁metal	-2545
▁aud	-2546
▁wond	-2547
ác	-2548
/mol	-2549
IT	-2550
▁Sm	-2551
اب	-2552
▁quite	-2553
▁series	-2554
back	-2555
▁front	-2556
▁Serv	-2557
▁і	-2558
▁favor	-2559
▁situ	-2560
▁black	-2561
▁likely	-2562
▁ox	-2563
medi	-2564
▁ко	-2565
▁Sec	-2566
▁caus	-2567
fully	-2568
▁پ	-2569
ED	-2570
▁Will	-2571
▁की	-2572
ends	-2573
urity	-2574
▁close	-2575
astic	-2576
▁К	-2577
icro	-2578
aving	-2579
▁previous	-2580
▁From	-2581
▁particip	-2582
▁Aug	-2583
▁behind	-2584
▁almost	-2585
iful	-2586
ka	-2587
-in	-2588
▁approach	-2589
▁Par	-2590
▁за	-2591
ival	-2592
resh	-2593
▁associ	-2594
▁saf	-2595
▁deb	-2596
▁magn	-2597
-y	-2598
▁cannot	-2599
▁sil	-2600
ources	-2601
▁ 	-2602
▁jo	-2603
▁hy	-2604
endent	-2605
▁install	-2606
an.	-2607
▁60	-2608
▁fail	-2609
'll	-2610
▁bill	-2611
▁40	-2612
по	-2613
▁प्र	-2614
▁girl	-2615
ided	-2616
▁upon	-2617
▁changes	-2618
ste	-2619
21	-2620
▁CO	-2621
ate.	-2622
light	-2623
▁recomm	-2624
▁input	-2625
▁Har	-2626
▁lov	-2627
ude	-2628
oud	-2629
lor	-2630
▁values	-2631
ana	-2632
▁you.	-2633
▁langu	-2634
la	-2635
▁196	-2636
▁National	-2637
ables	-2638
▁web	-2639
▁exact	-2640
▁answer	-2641
▁difficult	-2642
ians	-2643
▁Count	-2644
pro	-2645
▁Europe	-2646
▁Stud	-2647
▁bad	-2648
▁member	-2649
▁original	-2650
-3	-2651
▁box	-2652
▁six	-2653
▁trying	-2654
ried	-2655
. 	-2656
▁Acc	-2657
umb	-2658
ensive	-2659
▁subject	-2660
▁address	-2661
▁ल	-2662
▁Are	-2663
ता	-2664
ires	-2665
▁है।	-2666
▁tit	-2667
▁Apr	-2668
mit	-2669
’ve	-2670
▁si	-2671
elling	-2672
▁taken	-2673
▁cred	-2674
utions	-2675
▁औ	-2676
▁Thank	-2677
▁princ	-2678
▁Mark	-2679
▁option	-2680
▁dest	-2681
▁hope	-2682
ips	-2683
▁mor	-2684
iệ	-2685
▁everything	-2686
▁Pa	-2687
▁determine	-2688
ón	-2689
iber	-2690
ть	-2691
iting	-2692
-w	-2693
▁leading	-2694
IC	-2695
ica	-2696
▁simply	-2697
▁Oct	-2698
inary	-2699
ice,	-2700
▁World	-2701
▁é	-2702
head	-2703
▁building	-2704
▁الأ	-2705
ля	-2706
▁provides	-2707
▁accept	-2708
▁lower	-2709
ches	-2710
ding	-2711
oe	-2712
▁wid	-2713
ych	-2714
▁watch	-2715
▁وال	-2716
hers	-2717
▁mach	-2718
as.	-2719
itted	-2720
▁ي	-2721
itten	-2722
za	-2723
▁blog	-2724
رد	-2725
▁according	-2726
▁unique	-2727
▁pict	-2728
▁6.	-2729
artment	-2730
▁sex	-2731
▁Gl	-2732
▁approx	-2733
fort	-2734
▁ك	-2735
ato	-2736
▁대한	-2737
▁please	-2738
▁State	-2739
▁Sim	-2740
itting	-2741
▁introdu	-2742
ett	-2743
h,	-2744
ці	-2745
▁cover	-2746
▁stop	-2747
▁heat	-2748
▁indic	-2749
▁clean	-2750
▁track	-2751
▁tradition	-2752
▁और	-2753
▁base	-2754
▁می‌	-2755
w.	-2756
▁idea	-2757
minist	-2758
45	-2759
▁separ	-2760
▁valu	-2761
▁maintain	-2762
▁(P	-2763
▁dam	-2764
▁sense	-2765
▁regard	-2766
▁price	-2767
▁ग	-2768
▁к	-2769
ста	-2770
▁emb	-2771
uit	-2772
▁Don	-2773
▁spect	-2774
iff	-2775
ription	-2776
-based	-2777
▁extra	-2778
ет	-2779
uel	-2780
ID	-2781
▁foot	-2782
▁sam	-2783
ators	-2784
amer	-2785
▁complete	-2786
....	-2787
-st	-2788
ris	-2789
▁others	-2790
▁Aust	-2791
23	-2792
ча	-2793
earch	-2794
atur	-2795
▁les	-2796
▁probably	-2797
▁Ju	-2798
▁Mon	-2799
▁TH	-2800
▁است	-2801
▁measure	-2802
▁deep	-2803
99	-2804
or.	-2805
▁oil	-2806
pri	-2807
▁Dav	-2808
apt	-2809
▁Bu	-2810
overed	-2811
where	-2812
▁performance	-2813
empt	-2814
alu	-2815
▁works	-2816
▁especially	-2817
▁parent	-2818
▁needed	-2819
▁North	-2820
tty	-2821
▁gi	-2822
▁average	-2823
▁à	-2824
▁experienc	-2825
▁से	-2826
▁calculate	-2827
▁imag	-2828
▁friends	-2829
▁host	-2830
▁optim	-2831
▁initial	-2832
▁ways	-2833
▁rat	-2834
▁growth	-2835
▁seems	-2836
AC	-2837
ura	-2838
24	-2839
▁management	-2840
▁concentration	-2841
ür	-2842
▁Her	-2843
▁true	-2844
▁popular	-2845
fl	-2846
ames	-2847
▁inn	-2848
▁prec	-2849
▁South	-2850
▁professional	-2851
▁Pre	-2852
▁block	-2853
ân	-2854
▁Please	-2855
▁wait	-2856
ership	-2857
▁questions	-2858
▁een	-2859
off	-2860
bb	-2861
da	-2862
▁ensure	-2863
lege	-2864
에서	-2865
come	-2866
▁Cor	-2867
ما	-2868
iday	-2869
ault	-2870
ine,	-2871
ông	-2872
▁terms	-2873
ary,	-2874
▁(M	-2875
▁Act	-2876
▁arg	-2877
▁та	-2878
▁با	-2879
▁dog	-2880
▁streng	-2881
▁additional	-2882
▁ur	-2883
▁ill	-2884
▁Char	-2885
▁radi	-2886
्त	-2887
▁request	-2888
arning	-2889
quent	-2890
▁(1	-2891
▁hon	-2892
▁continue	-2893
▁(s	-2894
clus	-2895
▁इ	-2896
▁por	-2897
ET	-2898
▁tou	-2899
▁activity	-2900
▁pers	-2901
ци	-2902
▁challeng	-2903
ories	-2904
▁School	-2905
atter	-2906
▁som	-2907
▁user	-2908
▁official	-2909
▁که	-2910
▁draw	-2911
rix	-2912
▁cry	-2913
▁forward	-2914
aur	-2915
▁usually	-2916
▁behav	-2917
으로	-2918
▁dire	-2919
aily	-2920
▁estab	-2921
▁mag	-2922
▁minutes	-2923
pper	-2924
▁ability	-2925
▁communic	-2926
▁page	-2927
ar,	-2928
▁heav	-2929
▁speed	-2930
ure,	-2931
▁becom	-2932
▁regular	-2933
▁anything	-2934
▁(N	-2935
▁provided	-2936
▁news	-2937
▁speak	-2938
ha	-2939
acy	-2940
que	-2941
▁via	-2942
▁cm	-2943
▁$$\	-2944
▁wanted	-2945
▁features	-2946
▁Park	-2947
▁sem	-2948
▁website	-2949
▁analy	-2950
▁media	-2951
ga	-2952
ites	-2953
▁itself	-2954
ases	-2955
▁fire	-2956
▁cause	-2957
ores	-2958
▁created	-2959
abor	-2960
▁choose	-2961
▁essential	-2962
▁observ	-2963
▁coun	-2964
▁obtain	-2965
p.	-2966
че	-2967
oura	-2968
▁added	-2969
▁про	-2970
▁coord	-2971
just	-2972
US	-2973
▁yourself	-2974
▁pow	-2975
alt	-2976
▁imm	-2977
▁nature	-2978
▁الع	-2979
▁financial	-2980
▁explain	-2981
▁beautiful	-2982
▁//	-2983
kan	-2984
▁staff	-2985
▁includes	-2986
OS	-2987
▁reach	-2988
▁engine	-2989
ournal	-2990
▁उ	-2991
AM	-2992
▁assist	-2993
рі	-2994
▁death	-2995
▁document	-2996
▁write	-2997
ension	-2998
ception	-2999
▁plant	-3000
▁decision	-3001
▁ng	-3002
▁pretty	-3003
▁flow	-3004
▁recogn	-3005
▁ord	-3006
verse	-3007
▁allows	-3008
▁sun	-3009
atory	-3010
▁concern	-3011
▁fram	-3012
▁bank	-3013
▁knowledge	-3014
кий	-3015
▁cook	-3016
▁that,	-3017
▁board	-3018
▁Aut	-3019
rote	-3020
day,	-3021
▁offers	-3022
▁correct	-3023
▁là	-3024
▁style	-3025
RE	-3026
▁proces	-3027
▁private	-3028
lying	-3029
://	-3030
▁software	-3031
▁2012	-3032
▁ma	-3033
▁را	-3034
ере	-3035
ales	-3036
▁대한민	-3037
▁modern	-3038
▁sle	-3039
on.	-3040
▁history	-3041
▁polymer	-3042
ella	-3043
▁mix	-3044
▁predict	-3045
▁code	-3046
▁me.	-3047
▁Feb	-3048
▁unit	-3049
▁collect	-3050
▁Ob	-3051
ufact	-3052
ham	-3053
▁bott	-3054
▁conduct	-3055
▁attack	-3056
▁difference	-3057
▁shows	-3058
adem	-3059
▁months	-3060
▁Of	-3061
ynam	-3062
▁City	-3063
▁living	-3064
ached	-3065
▁Fe	-3066
ine.	-3067
▁positive	-3068
▁training	-3069
/2	-3070
▁Cons	-3071
▁issu	-3072
pped	-3073
ithm	-3074
arc	-3075
▁củ	-3076
▁sus	-3077
irit	-3078
▁coming	-3079
▁fra	-3080
▁Val	-3081
▁fast	-3082
▁concept	-3083
▁related	-3084
▁System	-3085
▁Then	-3086
▁của	-3087
rel	-3088
▁implement	-3089
lev	-3090
ско	-3091
▁rev	-3092
▁designed	-3093
▁formula	-3094
▁dise	-3095
▁response	-3096
ev	-3097
ری	-3098
▁fit	-3099
▁road	-3100
▁arch	-3101
▁vo	-3102
set	-3103
▁everyone	-3104
▁March	-3105
▁carbon	-3106
ights	-3107
▁instead	-3108
▁ep	-3109
▁nothing	-3110
▁autom	-3111
た。	-3112
▁source	-3113
され	-3114
▁param	-3115
obile	-3116
▁national	-3117
▁cand	-3118
▁High	-3119
▁analysis	-3120
▁Sept	-3121
▁held	-3122
▁factor	-3123
▁towards	-3124
▁age	-3125
▁version	-3126
ili	-3127
unt	-3128
▁song	-3129
ald	-3130
▁A.	-3131
▁train	-3132
▁Dr.	-3133
asc	-3134
▁194	-3135
▁technology	-3136
is.	-3137
▁Mich	-3138
▁ful	-3139
ming	-3140
▁wall	-3141
70	-3142
▁display	-3143
▁white	-3144
zym	-3145
hal	-3146
▁learning	-3147
ter,	-3148
pose	-3149
lim	-3150
▁asked	-3151
inn	-3152
▁@	-3153
▁longer	-3154
▁understanding	-3155
4)	-3156
ione	-3157
▁(I	-3158
've	-3159
▁cru	-3160
▁throughout	-3161
▁town	-3162
selves	-3163
▁writing	-3164
____	-3165
▁limit	-3166
rt	-3167
ceed	-3168
▁announ	-3169
omb	-3170
▁Met	-3171
35	-3172
▁ion	-3173
▁April	-3174
▁cross	-3175
▁propos	-3176
▁band	-3177
▁year.	-3178
py	-3179
▁d'	-3180
▁hit	-3181
▁ri	-3182
▁사	-3183
▁stra	-3184
▁molecular	-3185
umber	-3186
-year	-3187
ees	-3188
rang	-3189
▁plat	-3190
andom	-3191
hel	-3192
▁श	-3193
▁ple	-3194
▁multiple	-3195
▁×	-3196
▁interaction	-3197
▁running	-3198
ure.	-3199
▁bed	-3200
▁didn’t	-3201
aves	-3202
▁21	-3203
90	-3204
▁arm	-3205
▁Ser	-3206
▁J.	-3207
▁Mod	-3208
▁swe	-3209
▁Gener	-3210
ell,	-3211
▁(2	-3212
NA	-3213
nder	-3214
oo	-3215
pen	-3216
▁prep	-3217
▁occur	-3218
▁sample	-3219
▁materials	-3220
▁overall	-3221
▁ی	-3222
▁aw	-3223
▁rul	-3224
▁non-	-3225
▁companies	-3226
رب	-3227
▁आ	-3228
in.	-3229
ese	-3230
▁Ac	-3231
▁goal	-3232
▁agre	-3233
ucle	-3234
▁gives	-3235
iven	-3236
▁2,	-3237
▁od	-3238
▁hor	-3239
ườ	-3240
سی	-3241
▁sn	-3242
▁Was	-3243
сто	-3244
▁있	-3245
osition	-3246
▁West	-3247
▁inside	-3248
▁stri	-3249
▁grand	-3250
▁bud	-3251
▁195	-3252
▁enh	-3253
▁Ang	-3254
▁Red	-3255
$.	-3256
ises	-3257
▁investig	-3258
bor	-3259
▁prevent	-3260
▁2013	-3261
▁treatment	-3262
word	-3263
mm	-3264
ground	-3265
▁prior	-3266
▁lost	-3267
OT	-3268
oke	-3269
EC	-3270
▁door	-3271
▁الت	-3272
▁park	-3273
▁(20	-3274
▁graph	-3275
75	-3276
▁numbers	-3277
ken	-3278
',	-3279
▁Brit	-3280
hic	-3281
▁त	-3282
▁pen	-3283
▁leave	-3284
▁worth	-3285
▁p.	-3286
ित	-3287
ades	-3288
▁alg	-3289
▁Each	-3290
▁Ear	-3291
▁President	-3292
▁couple	-3293
▁section	-3294
▁saw	-3295
ano	-3296
▁star	-3297
▁23	-3298
▁sett	-3299
ту	-3300
ві	-3301
▁solve	-3302
▁I’ve	-3303
▁7.	-3304
▁compon	-3305
bit	-3306
▁sin	-3307
▁cos	-3308
▁М	-3309
▁Sol	-3310
▁electr	-3311
▁match	-3312
▁insp	-3313
▁Ant	-3314
▁för	-3315
▁element	-3316
▁protect	-3317
▁fix	-3318
▁round	-3319
▁loss	-3320
ependent	-3321
ffe	-3322
100	-3323
▁convers	-3324
el,	-3325
idered	-3326
▁words	-3327
▁consist	-3328
▁areas	-3329
▁hol	-3330
де	-3331
iddle	-3332
▁outside	-3333
lam	-3334
ogle	-3335
▁Pat	-3336
▁you're	-3337
ental	-3338
▁here.	-3339
==	-3340
ios	-3341
▁force	-3342
▁(d	-3343
▁types	-3344
umn	-3345
▁synt	-3346
▁Read	-3347
▁physical	-3348
▁"The	-3349
▁effective	-3350
▁со	-3351
لا	-3352
▁property	-3353
▁Every	-3354
sec	-3355
▁remember	-3356
▁viol	-3357
vil	-3358
▁Je	-3359
▁issues	-3360
▁began	-3361
▁blood	-3362
▁San	-3363
urg	-3364
▁states	-3365
▁application	-3366
▁cool	-3367
lig	-3368
ión	-3369
▁appl	-3370
▁square	-3371
▁Н	-3372
::	-3373
ero	-3374
▁image	-3375
ya	-3376
▁Stat	-3377
▁double	-3378
▁systems	-3379
▁years.	-3380
erve	-3381
hood	-3382
▁22	-3383
وا	-3384
u,	-3385
▁Sk	-3386
▁cataly	-3387
▁IS	-3388
▁Also	-3389
▁tour	-3390
cy	-3391
га	-3392
▁reading	-3393
▁brand	-3394
▁Gra	-3395
▁activities	-3396
pond	-3397
▁receive	-3398
ted	-3399
▁comfort	-3400
▁suit	-3401
▁conditions	-3402
▁written	-3403
сти	-3404
otal	-3405
▁그	-3406
िया	-3407
▁global	-3408
си	-3409
▁currently	-3410
▁hu	-3411
▁shall	-3412
lı	-3413
▁bound	-3414
▁necessary	-3415
▁achieve	-3416
▁“The	-3417
33	-3418
▁House	-3419
▁distance	-3420
▁compound	-3421
-4	-3422
▁remov	-3423
▁involved	-3424
▁Day	-3425
▁Use	-3426
▁capac	-3427
्व	-3428
▁received	-3429
▁до	-3430
▁games	-3431
▁گ	-3432
▁Mus	-3433
▁ز	-3434
ype	-3435
▁distribution	-3436
-g	-3437
cast	-3438
ide.	-3439
name	-3440
arr	-3441
мо	-3442
-C	-3443
▁groups	-3444
▁click	-3445
▁considered	-3446
▁problems	-3447
▁vot	-3448
▁exec	-3449
uth	-3450
▁prot	-3451
th,	-3452
نا	-3453
ss	-3454
▁doesn’t	-3455
▁techniqu	-3456
ượ	-3457
▁myself	-3458
ic,	-3459
▁대한민국의	-3460
▁pair	-3461
▁former	-3462
pre	-3463
▁teac	-3464
▁dim	-3465
▁wrong	-3466
▁Trans	-3467
▁August	-3468
ку	-3469
▁medical	-3470
▁kJ	-3471
uary	-3472
▁extrem	-3473
▁Sw	-3474
▁cele	-3475
▁pan	-3476
▁Spe	-3477
▁compl	-3478
▁that’s	-3479
▁wonder	-3480
▁Sub	-3481
▁green	-3482
▁molecul	-3483
isf	-3484
▁year,	-3485
▁became	-3486
▁contract	-3487
▁soon	-3488
▁(F	-3489
▁Out	-3490
▁article	-3491
▁users	-3492
ري	-3493
▁Get	-3494
rences	-3495
▁collection	-3496
▁charge	-3497
erd	-3498
ção	-3499
▁task	-3500
aign	-3501
▁said,	-3502
▁manufact	-3503
▁Đ	-3504
▁Work	-3505
▁bod	-3506
▁Cour	-3507
▁Most	-3508
▁mention	-3509
▁attempt	-3510
▁integr	-3511
oom	-3512
:00	-3513
▁height	-3514
▁I've	-3515
▁emer	-3516
▁dark	-3517
▁soci	-3518
▁output	-3519
ederal	-3520
omen	-3521
zen	-3522
▁Hol	-3523
▁2010	-3524
▁ए	-3525
▁Why	-3526
▁approximately	-3527
ве	-3528
▁reduce	-3529
▁increased	-3530
pite	-3531
28	-3532
▁evalu	-3533
▁А	-3534
haps	-3535
▁late	-3536
▁firm	-3537
▁anyone	-3538
mon	-3539
▁mi	-3540
▁pattern	-3541
▁Mat	-3542
omp	-3543
▁English	-3544
▁increasing	-3545
▁seek	-3546
▁Bel	-3547
▁avoid	-3548
▁Find	-3549
▁led	-3550
ops	-3551
▁can’t	-3552
▁jud	-3553
oul	-3554
▁life.	-3555
▁Health	-3556
ida	-3557
▁numer	-3558
▁June	-3559
▁slow	-3560
▁till	-3561
▁produce	-3562
▁Inst	-3563
▁connect	-3564
▁day.	-3565
raw	-3566
▁electronic	-3567
-up	-3568
no	-3569
▁organiz	-3570
▁य	-3571
▁issue	-3572
ovember	-3573
▁sequ	-3574
▁miles	-3575
▁las	-3576
▁immedi	-3577
ów	-3578
-5	-3579
▁appropri	-3580
▁evidence	-3581
▁gain	-3582
▁bag	-3583
▁(H	-3584
ivil	-3585
▁recommend	-3586
▁drive	-3587
ів	-3588
▁ready	-3589
▁capt	-3590
▁probability	-3591
▁liter	-3592
Wh	-3593
ester	-3594
fficient	-3595
cil	-3596
▁can't	-3597
C.	-3598
▁2011	-3599
▁years,	-3600
-S	-3601
unk	-3602
ror	-3603
▁doesn't	-3604
fore,	-3605
▁didn't	-3606
▁me,	-3607
▁Mr.	-3608
equ	-3609
▁playing	-3610
▁absor	-3611
▁International	-3612
cos	-3613
▁Р	-3614
▁Manag	-3615
rast	-3616
▁political	-3617
ensity	-3618
▁2020	-3619
▁Rom	-3620
▁send	-3621
▁chemistry	-3622
▁appe	-3623
न्	-3624
▁experiment	-3625
▁factors	-3626
zz	-3627
ide,	-3628
26	-3629
▁Art	-3630
-A	-3631
les,	-3632
▁opportunity	-3633
▁Det	-3634
gram	-3635
▁identify	-3636
ini	-3637
36	-3638
▁international	-3639
▁is,	-3640
▁goes	-3641
▁starting	-3642
▁download	-3643
▁sort	-3644
▁ber	-3645
able.	-3646
EL	-3647
▁shown	-3648
▁directly	-3649
one.	-3650
▁TV	-3651
▁customers	-3652
sq	-3653
▁events	-3654
▁protein	-3655
In	-3656
hern	-3657
▁comment	-3658
▁equal	-3659
▁Tw	-3660
yond	-3661
▁hair	-3662
rown	-3663
▁Sur	-3664
▁dete	-3665
▁uses	-3666
する	-3667
▁case,	-3668
▁client	-3669
▁Germ	-3670
▁가	-3671
▁altern	-3672
ression	-3673
▁Sund	-3674
right)	-3675
▁Other	-3676
▁worked	-3677
▁các	-3678
▁sold	-3679
▁"A	-3680
yth	-3681
▁summer	-3682
▁digital	-3683
ante	-3684
urance	-3685
▁II	-3686
▁War	-3687
▁pressure	-3688
▁28	-3689
▁को	-3690
▁completely	-3691
▁integ	-3692
▁Lond	-3693
▁transfer	-3694
▁resist	-3695
(\	-3696
▁September	-3697
▁Inc	-3698
pi	-3699
aces	-3700
▁Wind	-3701
▁mid	-3702
▁exactly	-3703
▁Off	-3704
ico	-3705
▁States	-3706
▁Over	-3707
ki	-3708
ospital	-3709
▁security	-3710
وم	-3711
▁looks	-3712
urb	-3713
▁David	-3714
▁dream	-3715
▁platform	-3716
чи	-3717
▁administ	-3718
iế	-3719
▁inj	-3720
▁mother	-3721
rum	-3722
▁surpr	-3723
▁vehic	-3724
▁levels	-3725
chen	-3726
▁http://	-3727
▁ро	-3728
▁%	-3729
arter	-3730
▁July	-3731
78	-3732
▁feed	-3733
▁providing	-3734
▁не	-3735
▁built	-3736
at.	-3737
▁transport	-3738
▁(b	-3739
wood	-3740
")	-3741
▁т	-3742
▁teach	-3743
▁princip	-3744
▁fair	-3745
▁sell	-3746
▁Any	-3747
▁active	-3748
▁commit	-3749
▁scient	-3750
rought	-3751
iving	-3752
▁credit	-3753
▁roll	-3754
▁equip	-3755
▁effects	-3756
▁Even	-3757
▁statement	-3758
$,	-3759
ну	-3760
▁blue	-3761
▁decided	-3762
dom	-3763
▁…	-3764
▁این	-3765
▁books	-3766
▁IN	-3767
して	-3768
▁you,	-3769
cember	-3770
▁warm	-3771
▁)	-3772
oring	-3773
▁latest	-3774
nown	-3775
ening	-3776
log	-3777
▁Sam	-3778
▁easily	-3779
board	-3780
▁encoura	-3781
▁stock	-3782
▁qual	-3783
▁relig	-3784
▁Б	-3785
▁choice	-3786
▁president	-3787
▁Satur	-3788
▁however,	-3789
at,	-3790
▁fresh	-3791
ache	-3792
ices.	-3793
ير	-3794
▁ten	-3795
▁demon	-3796
▁gave	-3797
▁Afric	-3798
ING	-3799
▁direction	-3800
▁Av	-3801
▁Dem	-3802
▁Austral	-3803
▁Free	-3804
▁Black	-3805
ession	-3806
▁(B	-3807
▁etc.	-3808
▁hear	-3809
▁highly	-3810
▁well.	-3811
▁Stre	-3812
UR	-3813
a)	-3814
ellow	-3815
rig	-3816
itter	-3817
és	-3818
▁milit	-3819
▁piece	-3820
▁Net	-3821
olic	-3822
29	-3823
▁Associ	-3824
▁court	-3825
idge	-3826
▁(c	-3827
▁included	-3828
ід	-3829
▁fight	-3830
rite	-3831
▁(D	-3832
▁plus	-3833
▁methods	-3834
▁office	-3835
ilit	-3836
▁items	-3837
arily	-3838
▁himself	-3839
▁Russ	-3840
▁boy	-3841
27	-3842
cause	-3843
raft	-3844
add	-3845
▁Vol	-3846
▁Calif	-3847
▁date	-3848
▁daily	-3849
▁(R	-3850
m,	-3851
▁computer	-3852
ender	-3853
▁reve	-3854
lier	-3855
-19	-3856
▁Once	-3857
▁vict	-3858
▁Direct	-3859
▁broad	-3860
▁Step	-3861
}$$	-3862
ION	-3863
▁Prof	-3864
▁November	-3865
▁random	-3866
▁Dis	-3867
ınd	-3868
unction	-3869
▁Phil	-3870
▁patient	-3871
▁ра	-3872
ना	-3873
▁Techn	-3874
▁trust	-3875
  	-3876
nie	-3877
▁vac	-3878
▁October	-3879
▁nucle	-3880
hold	-3881
▁touch	-3882
▁ded	-3883
▁gets	-3884
▁demand	-3885
▁Mond	-3886
eli	-3887
▁M.	-3888
▁gold	-3889
iles	-3890
aling	-3891
▁Jap	-3892
▁Dist	-3893
▁amaz	-3894
▁Inter	-3895
▁Add	-3896
▁customer	-3897
▁mis	-3898
▁felt	-3899
one,	-3900
▁effort	-3901
▁pull	-3902
▁normal	-3903
▁Г	-3904
▁presence	-3905
ought	-3906
▁26	-3907
▁phone	-3908
▁science	-3909
inated	-3910
▁bul	-3911
ry,	-3912
▁recently	-3913
▁г	-3914
▁Plan	-3915
rat	-3916
▁Up	-3917
respond	-3918
▁jour	-3919
▁influence	-3920
www.	-3921
▁electro	-3922
mas	-3923
iar	-3924
▁save	-3925
/d	-3926
▁Law	-3927
اه	-3928
UT	-3929
oper	-3930
sych	-3931
▁wide	-3932
asing	-3933
▁Rem	-3934
▁Wed	-3935
iding	-3936
ाल	-3937
му	-3938
▁ult	-3939
مان	-3940
▁meeting	-3941
▁serious	-3942
▁ر	-3943
mercial	-3944
?"	-3945
▁para	-3946
▁una	-3947
wa	-3948
rab	-3949
▁unc	-3950
▁Many	-3951
▁decre	-3952
▁ol	-3953
▁behavior	-3954
my	-3955
ipl	-3956
▁campaign	-3957
ने	-3958
500	-3959
vey	-3960
▁####	-3961
▁bab	-3962
▁medic	-3963
-M	-3964
▁knew	-3965
▁hands	-3966
▁ö	-3967
bre	-3968
▁party	-3969
aint	-3970
ael	-3971
vis	-3972
▁kit	-3973
▁summ	-3974
▁bra	-3975
▁wel	-3976
34	-3977
▁Jo	-3978
hest	-3979
▁let's	-3980
▁volume	-3981
شت	-3982
OM	-3983
▁creating	-3984
▁world.	-3985
▁technolog	-3986
▁that's	-3987
▁sales	-3988
▁ф	-3989
iction	-3990
であ	-3991
▁수	-3992
ại	-3993
▁rock	-3994
itude	-3995
▁chance	-3996
▁players	-3997
▁Mor	-3998
▁80	-3999
▁release	-4000
▁legal	-4001
▁elements	-4002
▁Center	-4003
▁associated	-4004
ards	-4005
orithm	-4006
▁expected	-4007
▁flu	-4008
us.	-4009
▁ing	-4010
▁sen	-4011
▁hous	-4012
▁Er	-4013
ния	-4014
▁Ret	-4015
▁10.	-4016
▁patients	-4017
▁heard	-4018
за	-4019
▁8.	-4020
▁strength	-4021
▁figure	-4022
▁particularly	-4023
A,	-4024
dis	-4025
▁го	-4026
vant	-4027
▁esc	-4028
▁lic	-4029
ibrary	-4030
▁27	-4031
och	-4032
бо	-4033
nam	-4034
▁exerc	-4035
▁hop	-4036
ду	-4037
▁على	-4038
▁located	-4039
A.	-4040
▁happy	-4041
▁details	-4042
▁enter	-4043
▁inform	-4044
▁0.0	-4045
eler	-4046
▁variety	-4047
▁वि	-4048
hemat	-4049
▁2009	-4050
▁wood	-4051
▁categ	-4052
ran	-4053
style	-4054
gar	-4055
▁January	-4056
▁favorite	-4057
▁drink	-4058
ieved	-4059
▁2008	-4060
urt	-4061
▁estim	-4062
▁har	-4063
▁Supp	-4064
▁efficient	-4065
▁fa	-4066
ibly	-4067
▁regul	-4068
▁whose	-4069
▁Develop	-4070
لي	-4071
▁Paul	-4072
ford	-4073
▁options	-4074
ruit	-4075
gra	-4076
▁First,	-4077
▁Na	-4078
▁published	-4079
▁29	-4080
▁maximum	-4081
▁2014	-4082
▁mer	-4083
▁floor	-4084
یر	-4085
rium	-4086
▁compared	-4087
cz	-4088
▁scen	-4089
g.	-4090
▁connection	-4091
ới	-4092
▁load	-4093
▁spirit	-4094
▁movie	-4095
▁yield	-4096
ye	-4097
▁day,	-4098
angle	-4099
IL	-4100
”.	-4101
▁December	-4102
izes	-4103
▁neigh	-4104
▁shape	-4105
▁education	-4106
▁benefit	-4107
▁feet	-4108
▁economic	-4109
は、	-4110
▁Д	-4111
▁prem	-4112
▁У	-4113
▁Δ	-4114
band	-4115
▁camer	-4116
aging	-4117
▁eyes	-4118
32	-4119
▁weeks	-4120
ras	-4121
▁Commun	-4122
▁screen	-4123
▁helps	-4124
▁deriv	-4125
5)	-4126
▁solutions	-4127
▁Californ	-4128
▁von	-4129
▁во	-4130
▁Sen	-4131
les.	-4132
▁excell	-4133
▁emot	-4134
▁при	-4135
48	-4136
▁promot	-4137
39	-4138
os,	-4139
▁giving	-4140
atively	-4141
▁apply	-4142
tical	-4143
▁respond	-4144
▁cit	-4145
illing	-4146
▁basic	-4147
ge,	-4148
▁glass	-4149
▁gradu	-4150
vest	-4151
▁innov	-4152
aches	-4153
▁2016	-4154
38	-4155
хо	-4156
▁surround	-4157
▁parts	-4158
olf	-4159
▁satisf	-4160
],	-4161
▁lack	-4162
▁proced	-4163
▁nice	-4164
▁critical	-4165
▁efficienc	-4166
▁Tod	-4167
▁정	-4168
▁kJ/mol	-4169
orge	-4170
rial	-4171
▁expression	-4172
▁dead	-4173
▁हैं	-4174
▁Bus	-4175
▁formation	-4176
şt	-4177
more	-4178
▁Department	-4179
▁PM	-4180
itely	-4181
BC	-4182
▁language	-4183
▁2017	-4184
able,	-4185
▁Google	-4186
▁util	-4187
▁sleep	-4188
▁AM	-4189
▁1:	-4190
▁played	-4191
▁전	-4192
▁correspond	-4193
▁transition	-4194
▁Great	-4195
▁기	-4196
iring	-4197
▁quickly	-4198
▁kids	-4199
**	-4200
utive	-4201
▁successful	-4202
▁perm	-4203
▁See	-4204
▁According	-4205
▁center	-4206
▁released	-4207
▁contribut	-4208
▁(T	-4209
▁Face	-4210
▁mount	-4211
▁carry	-4212
▁reported	-4213
нсь	-4214
▁UK	-4215
▁Last	-4216
▁error	-4217
▁Group	-4218
▁AN	-4219
▁om	-4220
ocol	-4221
हा	-4222
····	-4223
'd	-4224
فت	-4225
▁angle	-4226
▁larger	-4227
rs	-4228
▁advant	-4229
▁brought	-4230
▁them,	-4231
▁assess	-4232
ooth	-4233
▁nan	-4234
▁assum	-4235
▁interesting	-4236
ành	-4237
pm	-4238
же	-4239
▁degre	-4240
▁woman	-4241
ences	-4242
▁greater	-4243
▁candid	-4244
عد	-4245
▁D.	-4246
enty	-4247
▁`	-4248
▁absol	-4249
▁Dan	-4250
▁safety	-4251
reci	-4252
ened	-4253
hington	-4254
िल	-4255
▁THE	-4256
▁instit	-4257
▁meaning	-4258
used	-4259
▁construction	-4260
aker	-4261
▁rent	-4262
ilib	-4263
▁Therefore,	-4264
▁anim	-4265
▁County	-4266
▁resid	-4267
ме	-4268
▁aspect	-4269
▁turned	-4270
usion	-4271
▁C.	-4272
▁reflect	-4273
▁ir	-4274
▁practice	-4275
▁straight	-4276
col	-4277
inate	-4278
▁beyond	-4279
▁var	-4280
▁पर	-4281
x^2	-4282
▁out.	-4283
▁sometimes	-4284
atives	-4285
▁stability	-4286
▁(and	-4287
ाज	-4288
▁limited	-4289
▁produced	-4290
-e	-4291
rim	-4292
▁spent	-4293
▁stuff	-4294
▁solid	-4295
▁traditional	-4296
▁anc	-4297
anger	-4298
eg	-4299
▁um	-4300
▁Book	-4301
▁como	-4302
▁themselves	-4303
▁command	-4304
▁adjust	-4305
ation:	-4306
▁theory	-4307
▁cup	-4308
ishing	-4309
i)	-4310
ocal	-4311
▁population	-4312
ague	-4313
ir.	-4314
AP	-4315
▁named	-4316
▁earn	-4317
▁ago	-4318
▁developed	-4319
▁có	-4320
el.	-4321
▁Rec	-4322
▁Pal	-4323
па	-4324
▁Est	-4325
=\	-4326
स्	-4327
▁this,	-4328
▁William	-4329
▁eth	-4330
▁father	-4331
▁appropriate	-4332
▁2015	-4333
▁Alex	-4334
▁mo	-4335
年）	-4336
▁interview	-4337
anch	-4338
▁ре	-4339
▁copy	-4340
▁region	-4341
▁pu	-4342
▁arriv	-4343
▁costs	-4344
▁Port	-4345
▁Design	-4346
▁subst	-4347
ares	-4348
▁units	-4349
▁Because	-4350
▁letter	-4351
es:	-4352
▁Air	-4353
aged	-4354
▁Web	-4355
venue	-4356
overn	-4357
vin	-4358
▁cy	-4359
uy	-4360
-8	-4361
▁note	-4362
▁central	-4363
(t	-4364
▁fully	-4365
▁≈	-4366
▁negative	-4367
▁Mac	-4368
▁capital	-4369
▁aware	-4370
ор	-4371
ние	-4372
يا	-4373
▁Although	-4374
apter	-4375
▁Hist	-4376
▁synthes	-4377
LE	-4378
rm{	-4379
▁trip	-4380
rench	-4381
था	-4382
▁thinking	-4383
met	-4384
▁S.	-4385
rows	-4386
▁Coun	-4387
▁gard	-4388
▁message	-4389
ih	-4390
▁expert	-4391
▁tick	-4392
▁safe	-4393
▁Cre	-4394
▁drop	-4395
▁looked	-4396
▁quantum	-4397
▁purpose	-4398
▁that.	-4399
2}	-4400
▁wants	-4401
▁driv	-4402
▁skin	-4403
▁об	-4404
▁moles	-4405
ira	-4406
▁AP	-4407
▁concentr	-4408
▁pet	-4409
▁Washington	-4410
ners	-4411
ipe	-4412
▁sch	-4413
▁actual	-4414
▁resources	-4415
▁nit	-4416
▁``	-4417
▁spend	-4418
▁independent	-4419
text{	-4420
▁“A	-4421
▁America	-4422
order	-4423
ilibrium	-4424
▁generally	-4425
ST	-4426
37	-4427
aught	-4428
▁moving	-4429
्ष	-4430
▁restaur	-4431
ید	-4432
▁him.	-4433
▁(or	-4434
▁Febru	-4435
▁fear	-4436
▁tend	-4437
▁Rich	-4438
▁sust	-4439
▁contains	-4440
65	-4441
▁Time	-4442
▁gre	-4443
enge	-4444
▁tried	-4445
▁King	-4446
ột	-4447
▁exhib	-4448
▁kn	-4449
▁sites	-4450
stitute	-4451
g)	-4452
▁sav	-4453
▁feeling	-4454
▁Ver	-4455
▁Nam	-4456
▁ü	-4457
▁2018	-4458
▁bind	-4459
▁cod	-4460
▁adult	-4461
▁lives	-4462
ного	-4463
▁Program	-4464
▁tal	-4465
aste	-4466
▁B.	-4467
▁rights	-4468
EO	-4469
ously	-4470
-B	-4471
bf	-4472
-20	-4473
▁– 	-4474
▁Jes	-4475
▁Research	-4476
overy	-4477
▁useful	-4478
▁work.	-4479
▁(200	-4480
°C	-4481
▁mechanism	-4482
▁more.	-4483
arrow	-4484
▁algorithm	-4485
▁Mart	-4486
▁Total	-4487
▁아	-4488
▁مع	-4489
ef	-4490
bra	-4491
▁sides	-4492
▁bur	-4493
▁policy	-4494
ase.	-4495
▁chain	-4496
▁→	-4497
64	-4498
ics,	-4499
▁shot	-4500
sqrt	-4501
attle	-4502
▁id	-4503
95	-4504
s://	-4505
▁ви	-4506
▁repl	-4507
▁(the	-4508
men	-4509
▁Cur	-4510
ał	-4511
から	-4512
▁aim	-4513
AD	-4514
со	-4515
▁opportunities	-4516
yr	-4517
ược	-4518
mark	-4519
▁attention	-4520
duc	-4521
▁Thurs	-4522
▁controll	-4523
cd	-4524
▁career	-4525
▁90	-4526
▁electric	-4527
eters	-4528
▁map	-4529
▁budget	-4530
1}	-4531
▁course,	-4532
▁saying	-4533
▁Rober	-4534
▁huge	-4535
▁nearly	-4536
▁ast	-4537
▁although	-4538
▁Jack	-4539
▁dynam	-4540
▁enzym	-4541
aughter	-4542
▁celebr	-4543
▁crucial	-4544
bum	-4545
▁acqu	-4546
▁apart	-4547
▁hab	-4548
▁wrote	-4549
▁interested	-4550
raz	-4551
▁Using	-4552
ăm	-4553
▁slight	-4554
▁theore	-4555
▁demonstr	-4556
▁fem	-4557
▁certainly	-4558
▁doub	-4559
▁Good	-4560
▁requires	-4561
▁cast	-4562
▁novel	-4563
▁Tues	-4564
▁Best	-4565
(n	-4566
wise	-4567
▁Under	-4568
▁guest	-4569
▁ap	-4570
▁ones	-4571
▁organization	-4572
▁birth	-4573
▁mobile	-4574
▁enthal	-4575
▁spot	-4576
ban	-4577
ise,	-4578
▁я	-4579
▁adm	-4580
asa	-4581
▁East	-4582
▁threat	-4583
▁race	-4584
▁dry	-4585
mp	-4586
мі	-4587
struct	-4588
▁deli	-4589
▁incor	-4590
-se	-4591
CO	-4592
-time	-4593
LA	-4594
▁applications	-4595
▁(E	-4596
▁cases	-4597
▁replace	-4598
▁Tim	-4599
▁Form	-4600
▁and,	-4601
▁pod	-4602
display	-4603
alle	-4604
لی	-4605
ices,	-4606
(1	-4607
box	-4608
ши	-4609
isions	-4610
▁largest	-4611
▁lig	-4612
▁الح	-4613
?”	-4614
▁(f	-4615
isl	-4616
▁Hel	-4617
▁harm	-4618
k,	-4619
fered	-4620
▁Def	-4621
▁equilibrium	-4622
▁ç	-4623
▁degree	-4624
▁ideas	-4625
berg	-4626
zer	-4627
ribute	-4628
2O	-4629
▁picture	-4630
cal	-4631
▁Del	-4632
▁farm	-4633
▁Michael	-4634
gl	-4635
▁commercial	-4636
▁regist	-4637
▁delivery	-4638
-P	-4639
body	-4640
▁cu	-4641
▁cold	-4642
ography	-4643
▁!	-4644
▁wish	-4645
hemical	-4646
▁marketing	-4647
ence,	-4648
▁सं	-4649
alam	-4650
▁بر	-4651
▁(t	-4652
▁serve	-4653
▁process.	-4654
▁آن	-4655
uments	-4656
▁cryst	-4657
ている。	-4658
▁setting	-4659
▁미	-4660
CH	-4661
ere	-4662
▁Gold	-4663
ій	-4664
alog	-4665
▁bottom	-4666
▁finally	-4667
/s	-4668
▁Quest	-4669
▁thous	-4670
ijn	-4671
▁virt	-4672
▁club	-4673
▁annual	-4674
こと	-4675
rief	-4676
▁maybe	-4677
▁इस	-4678
▁director	-4679
▁<<	-4680
▁wild	-4681
print	-4682
▁context	-4683
▁growing	-4684
istics	-4685
▁nut	-4686
▁Facebook	-4687
▁score	-4688
▁existing	-4689
▁finding	-4690
▁Super	-4691
▁500	-4692
▁Note	-4693
ying	-4694
▁prop	-4695
▁\frac{	-4696
▁functions	-4697
▁Cong	-4698
iên	-4699
▁3,	-4700
gn	-4701
atever	-4702
▁spl	-4703
acter	-4704
▁spread	-4705
▁2007	-4706
aren	-4707
change	-4708
▁Next	-4709
d.	-4710
▁Open	-4711
▁tools	-4712
▁breat	-4713
▁excellent	-4714
ất	-4715
▁surv	-4716
ava	-4717
gy	-4718
▁strugg	-4719
ाम	-4720
▁police	-4721
▁ST	-4722
▁progress	-4723
▁Jul	-4724
▁allowed	-4725
▁skills	-4726
ar.	-4727
▁Tex	-4728
▁symb	-4729
▁일	-4730
▁responsible	-4731
▁civil	-4732
▁sustain	-4733
▁doll	-4734
('	-4735
▁up.	-4736
▁onto	-4737
estern	-4738
▁individuals	-4739
▁```	-4740
igen	-4741
mu	-4742
▁1)	-4743
▁Fil	-4744
PS	-4745
undred	-4746
yp	-4747
▁bes	-4748
ali	-4749
useum	-4750
▁St.	-4751
▁James	-4752
▁35	-4753
ua	-4754
▁fat	-4755
▁Rel	-4756
▁“We	-4757
▁programs	-4758
▁(L	-4759
eta	-4760
example	-4761
▁benefits	-4762
▁deliver	-4763
ube	-4764
▁"S	-4765
ipping	-4766
displaystyle	-4767
кра	-4768
▁2:	-4769
▁plans	-4770
▁stress	-4771
▁isn’t	-4772
amin	-4773
▁được	-4774
▁busines	-4775
▁mel	-4776
do	-4777
▁script	-4778
▁significantly	-4779
▁한	-4780
icon	-4781
▁this.	-4782
force	-4783
▁transform	-4784
▁dro	-4785
▁appreci	-4786
inter	-4787
ant,	-4788
▁award	-4789
▁Home	-4790
▁Check	-4791
porate	-4792
▁Micro	-4793
▁No.	-4794
▁player	-4795
▁О	-4796
▁الس	-4797
ie,	-4798
You	-4799
▁secret	-4800
▁geomet	-4801
ic.	-4802
▁Review	-4803
▁us.	-4804
▁General	-4805
▁Cle	-4806
_n	-4807
▁During	-4808
▁interact	-4809
ando	-4810
ische	-4811
▁Sl	-4812
▁adding	-4813
▁powerful	-4814
▁paid	-4815
▁Top	-4816
▁شد	-4817
▁2019	-4818
ancy	-4819
▁Republic	-4820
IG	-4821
▁dedic	-4822
▁opin	-4823
abil	-4824
ently	-4825
した	-4826
از	-4827
field	-4828
▁environmental	-4829
66	-4830
▁rout	-4831
بر	-4832
▁root	-4833
iny	-4834
▁Green	-4835
▁?	-4836
▁dating	-4837
▁server	-4838
ils	-4839
ive,	-4840
▁(18	-4841
ternal	-4842
▁weekend	-4843
OH	-4844
▁entre	-4845
▁employees	-4846
pret	-4847
▁minim	-4848
orrow	-4849
日本	-4850
▁smart	-4851
خت	-4852
u.	-4853
sor	-4854
ustr	-4855
▁Ber	-4856
▁rank	-4857
▁balance	-4858
(2	-4859
10.	-4860
▁Found	-4861
▁immediately	-4862
asons	-4863
▁string	-4864
ated.	-4865
▁White	-4866
▁Ann	-4867
▁February	-4868
▁models	-4869
▁beginning	-4870
ite.	-4871
▁vector	-4872
▁eight	-4873
هر	-4874
▁expand	-4875
▁fab	-4876
▁steps	-4877
▁Indian	-4878
▁weak	-4879
▁Two	-4880
▁Class	-4881
▁refer	-4882
▁1/	-4883
▁animal	-4884
ements	-4885
▁system.	-4886
лю	-4887
▁Sal	-4888
▁Govern	-4889
▁monitor	-4890
▁Thanks	-4891
▁typically	-4892
▁cert	-4893
ancing	-4894
▁way.	-4895
▁hydrogen	-4896
98	-4897
▁window	-4898
rive	-4899
▁studies	-4900
▁Wednes	-4901
▁datab	-4902
▁unf	-4903
▁consult	-4904
semb	-4905
▁lines	-4906
▁seven	-4907
▁trend	-4908
rupt	-4909
ulf	-4910
This	-4911
▁prefer	-4912
see	-4913
▁ions	-4914
iem	-4915
ellig	-4916
ifying	-4917
▁Year	-4918
cel	-4919
po	-4920
▁Bre	-4921
▁Tom	-4922
▁إلى	-4923
aries	-4924
.)	-4925
ativ	-4926
▁becomes	-4927
▁purchase	-4928
▁initi	-4929
▁molecules	-4930
asy	-4931
’d	-4932
IM	-4933
▁photos	-4934
▁trou	-4935
са	-4936
▁primary	-4937
d::	-4938
enz	-4939
▁enthalpy	-4940
▁Mem	-4941
_1	-4942
▁"H	-4943
iling	-4944
▁(G	-4945
iquid	-4946
зи	-4947
▁vill	-4948
▁enhance	-4949
▁heavy	-4950
pping	-4951
▁oxy	-4952
▁Friday	-4953
▁eat	-4954
▁Att	-4955
▁diss	-4956
▁shoot	-4957
▁shop	-4958
▁isn't	-4959
55	-4960
▁European	-4961
opt	-4962
▁images	-4963
44	-4964
pa	-4965
▁ba	-4966
ias	-4967
▁Whe	-4968
▁Science	-4969
िय	-4970
▁now,	-4971
-D	-4972
ja	-4973
ander	-4974
▁Another	-4975
▁ط	-4976
▁beg	-4977
ía	-4978
EM	-4979
▁Japan	-4980
-old	-4981
▁Ev	-4982
▁talking	-4983
▁capacity	-4984
ge.	-4985
amm	-4986
▁truly	-4987
▁fine	-4988
▁på	-4989
▁Click	-4990
▁British	-4991
imb	-4992
▁지	-4993
osing	-4994
▁70	-4995
▁Sum	-4996
^3	-4997
▁matrix	-4998
▁một	-4999
▁you’ll	-5000
].	-5001
▁high-	-5002
▁followed	-5003
ket	-5004
▁Play	-5005
▁minimum	-5006
▁च	-5007
omin	-5008
▁attract	-5009
▁perhaps	-5010
▁too.	-5011
▁Hall	-5012
▁coffe	-5013
▁thus	-5014
мен	-5015
abilities	-5016
▁clin	-5017
▁ratio	-5018
▁9.	-5019
▁dé	-5020
▁trad	-5021
▁weather	-5022
▁(in	-5023
▁desired	-5024
▁cells	-5025
hi	-5026
▁stories	-5027
▁valid	-5028
▁amazing	-5029
▁News	-5030
▁morning	-5031
ette	-5032
▁location	-5033
▁one.	-5034
▁origin	-5035
▁Bank	-5036
▁kid	-5037
pha	-5038
▁कर	-5039
▁mit	-5040
▁artist	-5041
▁się	-5042
▁atm	-5043
itation	-5044
ycle	-5045
▁device	-5046
like	-5047
soft	-5048
▁peace	-5049
aled	-5050
term	-5051
▁investment	-5052
▁selection	-5053
▁ship	-5054
6)	-5055
ase,	-5056
OL	-5057
▁remove	-5058
artic	-5059
77	-5060
ht	-5061
--------	-5062
ний	-5063
z,	-5064
▁Public	-5065
▁background	-5066
DF	-5067
▁45	-5068
▁emp	-5069
▁title	-5070
▁middle	-5071
сть	-5072
olar	-5073
▁أن	-5074
▁simpl	-5075
▁hospital	-5076
▁assign	-5077
▁highest	-5078
▁machine	-5079
▁»	-5080
▁radio	-5081
ech	-5082
▁제	-5083
ey	-5084
▁Nov	-5085
▁Sun	-5086
ing:	-5087
▁described	-5088
”,	-5089
هم	-5090
▁Sa	-5091
▁catalyst	-5092
▁iP	-5093
▁الق	-5094
ар	-5095
ctors	-5096
net	-5097
▁Isra	-5098
ido	-5099
▁repe	-5100
▁gift	-5101
▁shift	-5102
▁ص	-5103
▁London	-5104
▁catch	-5105
ota	-5106
ca	-5107
▁ein	-5108
tee	-5109
▁again.	-5110
pert	-5111
▁Make	-5112
inct	-5113
ड़	-5114
▁Christian	-5115
gment	-5116
▁rates	-5117
racy	-5118
り、	-5119
▁cancer	-5120
▁parents	-5121
▁Business	-5122
ocr	-5123
edom	-5124
▁fill	-5125
▁(m	-5126
▁als	-5127
▁guide	-5128
▁Where	-5129
▁rob	-5130
يد	-5131
▁(3	-5132
▁Court	-5133
▁;	-5134
▁French	-5135
▁एक	-5136
▁Frank	-5137
▁album	-5138
▁there.	-5139
▁rang	-5140
▁a.	-5141
▁remains	-5142
‌های	-5143
▁chann	-5144
down	-5145
▁micro	-5146
▁£	-5147
▁defined	-5148
など	-5149
ita	-5150
but	-5151
▁Educ	-5152
ifically	-5153
cription	-5154
▁column	-5155
88	-5156
▁시	-5157
sin	-5158
▁resulting	-5159
▁hundred	-5160
:30	-5161
IV	-5162
▁Elect	-5163
▁College	-5164
roduct	-5165
▁Like	-5166
▁all,	-5167
▁is:	-5168
▁Franc	-5169
▁Disc	-5170
▁offered	-5171
▁mist	-5172
▁archite	-5173
وان	-5174
▁index	-5175
▁Canad	-5176
▁born	-5177
▁stream	-5178
rant	-5179
▁gar	-5180
known	-5181
▁au	-5182
vol	-5183
▁لل	-5184
▁Mal	-5185
▁on.	-5186
▁Phot	-5187
▁hus	-5188
▁Arch	-5189
▁Lear	-5190
▁Saturday	-5191
ốc	-5192
▁smaller	-5193
▁Who	-5194
▁master	-5195
▁thank	-5196
opping	-5197
▁ahead	-5198
▁combination	-5199
▁pH	-5200
iced	-5201
ces.	-5202
▁countries	-5203
▁places	-5204
cher	-5205
ses	-5206
▁dos	-5207
orial	-5208
▁nation	-5209
▁definitely	-5210
▁Л	-5211
();	-5212
▁Addition	-5213
ona	-5214
▁military	-5215
ей	-5216
▁People	-5217
vere	-5218
▁insurance	-5219
x)	-5220
▁counter	-5221
▁dress	-5222
▁Board	-5223
▁clients	-5224
▁definition	-5225
▁skill	-5226
▁arrang	-5227
hens	-5228
▁Sing	-5229
▁suff	-5230
ги	-5231
:0	-5232
▁accur	-5233
ania	-5234
▁profit	-5235
ски	-5236
▁healthy	-5237
akan	-5238
_t	-5239
▁federal	-5240
vi	-5241
▁Obama	-5242
▁moved	-5243
▁Sunday	-5244
itar	-5245
▁advert	-5246
▁Their	-5247
▁hyp	-5248
▁Rob	-5249
وس	-5250
▁join	-5251
▁offering	-5252
▁wat	-5253
▁мо	-5254
▁psych	-5255
▁ho	-5256
▁(w	-5257
▁rap	-5258
▁eye	-5259
▁dari	-5260
@example	-5261
▁https://	-5262
▁Ben	-5263
mathbf	-5264
▁collabor	-5265
▁techniques	-5266
▁Set	-5267
▁Thom	-5268
▁trong	-5269
▁vel	-5270
▁announced	-5271
▁Show	-5272
▁os	-5273
▁attend	-5274
▁Windows	-5275
▁frequ	-5276
▁Number	-5277
▁PR	-5278
▁culture	-5279
▁p.m.	-5280
umin	-5281
▁İ	-5282
▁row	-5283
ười	-5284
▁tom	-5285
iler	-5286
▁Test	-5287
1}{	-5288
▁fig	-5289
▁occas	-5290
▁now.	-5291
▁coach	-5292
ulate	-5293
▁vir	-5294
ive.	-5295
▁rich	-5296
▁Camp	-5297
DA	-5298
rient	-5299
ifi	-5300
▁Prov	-5301
▁rule	-5302
▁quarter	-5303
="	-5304
▁pal	-5305
▁truth	-5306
▁reference	-5307
▁năm	-5308
▁PC	-5309
▁guid	-5310
▁fact,	-5311
▁І	-5312
▁Council	-5313
▁home.	-5314
▁das	-5315
ipped	-5316
▁(4	-5317
ji	-5318
-6	-5319
▁(p	-5320
▁sport	-5321
▁helped	-5322
▁Service	-5323
ック	-5324
key	-5325
IP	-5326
▁there’s	-5327
▁fan	-5328
▁projects	-5329
▁visual	-5330
▁planning	-5331
▁Look	-5332
▁relevant	-5333
▁Calcul	-5334
▁linear	-5335
▁fol	-5336
▁shared	-5337
▁${\	-5338
▁brain	-5339
▁About	-5340
▁component	-5341
▁plays	-5342
▁waste	-5343
▁Bi	-5344
▁Earth	-5345
rag	-5346
/20	-5347
▁190	-5348
▁allowing	-5349
▁~	-5350
▁fuel	-5351
▁är	-5352
ных	-5353
▁photo	-5354
▁remind	-5355
mathrm{	-5356
-H	-5357
▁files	-5358
▁functional	-5359
▁www	-5360
▁Flor	-5361
▁ok	-5362
▁wa	-5363
BS	-5364
ola	-5365
▁Den	-5366
است	-5367
▁constit	-5368
ün	-5369
ius	-5370
ند.	-5371
▁Church	-5372
31	-5373
han	-5374
▁kept	-5375
land,	-5376
▁Journal	-5377
lo	-5378
ces,	-5379
▁equipment	-5380
▁convert	-5381
ери	-5382
▁ou	-5383
▁competition	-5384
تر	-5385
▁compar	-5386
▁filled	-5387
▁poll	-5388
-T	-5389
▁Mag	-5390
▁flex	-5391
▁excited	-5392
▁2006	-5393
▁stick	-5394
▁transl	-5395
▁Di	-5396
▁(a	-5397
▁therap	-5398
ính	-5399
▁cash	-5400
った	-5401
▁trade	-5402
▁“S	-5403
▁Jun	-5404
▁ton	-5405
▁स्	-5406
▁gro	-5407
ms	-5408
house	-5409
▁finish	-5410
rian	-5411
▁guar	-5412
ml	-5413
eles	-5414
▁iron	-5415
▁Lord	-5416
atically	-5417
ной	-5418
ile,	-5419
0)	-5420
ती	-5421
▁disapp	-5422
▁China	-5423
unn	-5424
▁poor	-5425
error	-5426
▁stage	-5427
▁(e.	-5428
▁하	-5429
ae	-5430
них	-5431
اری	-5432
▁earlier	-5433
▁changed	-5434
▁prepar	-5435
▁√	-5436
tered	-5437
тор	-5438
▁involves	-5439
▁List	-5440
▁haven	-5441
▁Vis	-5442
▁divid	-5443
ite,	-5444
▁brother	-5445
▁learned	-5446
alse	-5447
▁0,	-5448
▁Apple	-5449
iki	-5450
▁church	-5451
▁audience	-5452
وب	-5453
त्र	-5454
▁advent	-5455
▁Ins	-5456
▁life,	-5457
▁Big	-5458
▁Die	-5459
begin	-5460
ika	-5461
▁ΔH	-5462
▁fish	-5463
▁therm	-5464
▁sym	-5465
inger	-5466
▁journey	-5467
ais	-5468
▁alc	-5469
▁ideal	-5470
-r	-5471
▁della	-5472
▁www.	-5473
▁names	-5474
▁subt	-5475
▁college	-5476
▁중	-5477
▁Mo	-5478
▁Mill	-5479
.org	-5480
oles	-5481
▁Rad	-5482
▁loved	-5483
▁magnetic	-5484
▁rom	-5485
ction.	-5486
▁2005	-5487
▁:=	-5488
لك	-5489
uman	-5490
▁subm	-5491
▁passed	-5492
▁applied	-5493
▁CH	-5494
▁regarding	-5495
▁lock	-5496
▁Cap	-5497
n.	-5498
ario	-5499
ous,	-5500
▁adapt	-5501
▁·	-5502
▁Sil	-5503
▁Dec	-5504
▁2)	-5505
▁German	-5506
bag	-5507
ige	-5508
coming	-5509
▁easier	-5510
asure	-5511
▁agent	-5512
▁Data	-5513
▁plug	-5514
▁chair	-5515
▁Let's	-5516
agram	-5517
▁Internet	-5518
▁Finally,	-5519
▁Information	-5520
▁선	-5521
ति	-5522
OW	-5523
▁obvious	-5524
▁way,	-5525
▁Back	-5526
▁covered	-5527
ue,	-5528
▁ان	-5529
bert	-5530
▁uns	-5531
bed	-5532
▁explore	-5533
▁finished	-5534
ashion	-5535
▁config	-5536
_d	-5537
ise.	-5538
▁electrons	-5539
▁established	-5540
▁Spr	-5541
iy	-5542
▁Hot	-5543
▁leads	-5544
49	-5545
▁helping	-5546
▁Jer	-5547
agon	-5548
▁다	-5549
:5	-5550
ulated	-5551
▁lad	-5552
▁faith	-5553
▁symbol	-5554
▁voice	-5555
TS	-5556
ائ	-5557
_2	-5558
▁Bay	-5559
ande	-5560
▁alle	-5561
▁extremely	-5562
▁burn	-5563
▁pros	-5564
▁Well,	-5565
▁efficiency	-5566
▁Lou	-5567
▁(wh	-5568
▁reb	-5569
osite	-5570
▁doctor	-5571
▁الب	-5572
▁storage	-5573
▁mort	-5574
▁guy	-5575
▁served	-5576
▁4,	-5577
ours	-5578
ics.	-5579
MS	-5580
▁rot	-5581
▁Fam	-5582
▁Т	-5583
mat	-5584
▁Rock	-5585
▁instruction	-5586
▁OF	-5587
▁proof	-5588
▁billion	-5589
ction,	-5590
▁work,	-5591
▁fant	-5592
▁rules	-5593
▁forms	-5594
-L	-5595
▁well-	-5596
▁(n	-5597
▁wed	-5598
eting	-5599
▁labor	-5600
▁in.	-5601
rd	-5602
▁incred	-5603
▁situation	-5604
▁mere	-5605
owe	-5606
▁highlight	-5607
ory,	-5608
▁AC	-5609
се	-5610
▁basis	-5611
▁establish	-5612
▁Area	-5613
kin	-5614
},	-5615
}_{	-5616
▁Mel	-5617
ран	-5618
76	-5619
▁rare	-5620
▁memory	-5621
▁sweet	-5622
▁forest	-5623
▁surf	-5624
▁wonderful	-5625
▁partner	-5626
▁characters	-5627
▁toward	-5628
ence.	-5629
▁conv	-5630
▁except	-5631
▁Monday	-5632
▁Ital	-5633
arg	-5634
▁molecule	-5635
▁din	-5636
ii	-5637
▁300	-5638
▁batter	-5639
▁liquid	-5640
▁continued	-5641
porary	-5642
▁от	-5643
▁earth	-5644
▁out,	-5645
▁reserv	-5646
▁người	-5647
▁crim	-5648
▁sector	-5649
▁people.	-5650
▁std::	-5651
▁phase	-5652
▁"B	-5653
었다.	-5654
▁Ф	-5655
▁2000	-5656
uration	-5657
/or	-5658
▁Miss	-5659
▁Id	-5660
▁Water	-5661
▁paint	-5662
▁guess	-5663
▁derivative	-5664
fit	-5665
BN	-5666
iệt	-5667
▁cloud	-5668
▁tree	-5669
▁mut	-5670
▁oxygen	-5671
▁density	-5672
ho	-5673
▁interpret	-5674
aced	-5675
▁pages	-5676
▁bath	-5677
▁purs	-5678
A)	-5679
▁ign	-5680
▁fo	-5681
▁placed	-5682
жи	-5683
्या	-5684
-of	-5685
▁Mr	-5686
cell	-5687
96	-5688
▁seemed	-5689
▁California	-5690
▁leaving	-5691
краї	-5692
erk	-5693
▁une	-5694
ness,	-5695
asi	-5696
ln	-5697
▁opening	-5698
▁Bill	-5699
▁Mary	-5700
▁π	-5701
ुर	-5702
▁amb	-5703
rier	-5704
▁composition	-5705
वा	-5706
▁meant	-5707
▁dram	-5708
▁smooth	-5709
▁alt	-5710
▁conserv	-5711
▁dengan	-5712
ình	-5713
▁Div	-5714
▁movement	-5715
D.	-5716
lude	-5717
▁Fre	-5718
▁Power	-5719
▁univers	-5720
▁Its	-5721
ities.	-5722
standing	-5723
▁36	-5724
▁there's	-5725
ory.	-5726
▁cop	-5727
▁husband	-5728
▁Robert	-5729
ados	-5730
▁kitchen	-5731
-R	-5732
▁ru	-5733
▁Both	-5734
▁tro	-5735
▁==	-5736
▁الج	-5737
▁we’re	-5738
▁academ	-5739
ulations	-5740
▁whatever	-5741
▁quot	-5742
▁notice	-5743
▁Street	-5744
▁reli	-5745
▁seeing	-5746
▁sets	-5747
▁core	-5748
▁ancient	-5749
▁neighbor	-5750
▁lots	-5751
▁up,	-5752
-term	-5753
▁Here's	-5754
▁Club	-5755
▁Down	-5756
dy	-5757
▁laws	-5758
▁gun	-5759
ship	-5760
ated,	-5761
▁voor	-5762
_{\	-5763
▁cab	-5764
▁الإ	-5765
▁That’s	-5766
▁Soci	-5767
▁remaining	-5768
-re	-5769
▁Main	-5770
▁appears	-5771
uls	-5772
▁supply	-5773
▁separate	-5774
▁R.	-5775
▁nor	-5776
▁siz	-5777
ortunately	-5778
▁Lat	-5779
▁Pet	-5780
▁circum	-5781
▁teacher	-5782
▁advanced	-5783
▁jump	-5784
▁won’t	-5785
-year-old	-5786
▁Opt	-5787
stract	-5788
sequent	-5789
▁plot	-5790
▁Create	-5791
سل	-5792
▁जा	-5793
▁connected	-5794
▁multi	-5795
انی	-5796
▁frequent	-5797
ươ	-5798
ront	-5799
begin{	-5800
▁improved	-5801
▁forces	-5802
▁prepared	-5803
aper	-5804
▁е	-5805
osen	-5806
left(	-5807
ructure	-5808
▁Sant	-5809
point	-5810
▁dans	-5811
▁pun	-5812
▁vary	-5813
s.”	-5814
▁Cho	-5815
▁Amaz	-5816
▁impress	-5817
▁kill	-5818
-to-	-5819
stitution	-5820
97	-5821
▁journal	-5822
▁perspect	-5823
▁wit	-5824
▁q	-5825
▁developing	-5826
▁bird	-5827
▁entertain	-5828
zi	-5829
▁Los	-5830
▁and/or	-5831
lant	-5832
85	-5833
ns	-5834
utely	-5835
▁Life	-5836
▁showed	-5837
▁argument	-5838
▁citiz	-5839
▁IT	-5840
▁sand	-5841
▁appoint	-5842
▁è	-5843
▁rid	-5844
▁alternative	-5845
-7	-5846
▁Star	-5847
▁je	-5848
▁afford	-5849
اس	-5850
▁prices	-5851
▁Long	-5852
ương	-5853
▁Have	-5854
▁people,	-5855
▁diff	-5856
▁Brown	-5857
▁Stand	-5858
▁compre	-5859
47	-5860
itle	-5861
▁depend	-5862
▁AT	-5863
▁restrict	-5864
▁update	-5865
s?	-5866
▁TO	-5867
ướ	-5868
▁faster	-5869
▁$2	-5870
▁Product	-5871
▁$1	-5872
ación	-5873
▁button	-5874
▁sports	-5875
ée	-5876
▁По	-5877
ystem	-5878
▁Also,	-5879
▁э	-5880
▁Il	-5881
▁ax	-5882
▁species	-5883
ors,	-5884
▁neut	-5885
▁changing	-5886
ry.	-5887
C)	-5888
▁Mad	-5889
▁Gi	-5890
▁comments	-5891
▁E.	-5892
▁\\	-5893
osure	-5894
▁reduced	-5895
ati	-5896
▁teams	-5897
▁phil	-5898
ergy	-5899
▁depending	-5900
▁challenge	-5901
hedu	-5902
▁advantage	-5903
▁gall	-5904
▁bow	-5905
▁ма	-5906
osit	-5907
▁Profess	-5908
ams	-5909
▁world,	-5910
46	-5911
▁Comput	-5912
▁determined	-5913
▁wear	-5914
▁views	-5915
▁Bo	-5916
end{	-5917
ter.	-5918
▁invent	-5919
▁containing	-5920
▁Take	-5921
ria	-5922
▁caused	-5923
▁girls	-5924
▁discover	-5925
ferences	-5926
Ch	-5927
▁conference	-5928
▁"We	-5929
▁Ze	-5930
▁label	-5931
▁plann	-5932
ain,	-5933
▁"M	-5934
▁Leg	-5935
▁susp	-5936
▁elim	-5937
▁relax	-5938
lik	-5939
пи	-5940
ago	-5941
▁famous	-5942
mente	-5943
▁River	-5944
ora	-5945
▁legisl	-5946
▁fold	-5947
▁suitable	-5948
▁forget	-5949
▁agree	-5950
ronic	-5951
▁Ext	-5952
▁Smith	-5953
▁mak	-5954
▁हो	-5955
ku	-5956
sqrt{	-5957
cript	-5958
▁tail	-5959
▁Gal	-5960
▁Fore	-5961
▁Phys	-5962
▁coordination	-5963
▁grant	-5964
قد	-5965
▁بال	-5966
▁Management	-5967
unte	-5968
ıl	-5969
ır.	-5970
ricult	-5971
▁Inc.	-5972
▁Person	-5973
ena	-5974
▁presented	-5975
UN	-5976
▁chlor	-5977
▁ка	-5978
rosc	-5979
http	-5980
}^{	-5981
estic	-5982
▁ч	-5983
ess.	-5984
▁passion	-5985
▁today.	-5986
▁India	-5987
▁Ir	-5988
▁"T	-5989
▁Jesus	-5990
▁thanks	-5991
roid	-5992
▁Mex	-5993
▁ice	-5994
ent,	-5995
ni	-5996
▁हैं।	-5997
▁Mount	-5998
)$	-5999
▁Wil	-6000
▁ingred	-6001
-F	-6002
▁manufacture	-6003
▁nav	-6004
▁disease	-6005
▁P.	-6006
▁despite	-6007
▁knows	-6008
من	-6009
▁businesses	-6010
▁all.	-6011
▁strategy	-6012
▁climate	-6013
▁examples	-6014
▁medium	-6015
ingu	-6016
▁egg	-6017
▁George	-6018
5%	-6019
▁Tor	-6020
▁mechanical	-6021
▁restaurant	-6022
▁mas	-6023
▁emerg	-6024
ство	-6025
▁lose	-6026
▁Bet	-6027
▁operating	-6028
▁सम	-6029
ism,	-6030
▁keeping	-6031
▁brief	-6032
▁links	-6033
▁Tem	-6034
▁baby	-6035
▁biggest	-6036
▁runs	-6037
iverse	-6038
▁trig	-6039
ampions	-6040
▁driver	-6041
▁pool	-6042
ville	-6043
▁Start	-6044
ani	-6045
▁syn	-6046
▁exclus	-6047
▁영	-6048
▁technical	-6049
▁Pub	-6050
▁him,	-6051
▁Follow	-6052
▁Microsoft	-6053
ue.	-6054
▁nie	-6055
▁damage	-6056
▁conver	-6057
▁sud	-6058
▁involve	-6059
▁pada	-6060
▁leaves	-6061
▁zijn	-6062
▁payment	-6063
▁crow	-6064
▁slightly	-6065
▁AS	-6066
▁information.	-6067
中国	-6068
hr	-6069
▁Care	-6070
▁Road	-6071
▁traffic	-6072
▁pour	-6073
▁throw	-6074
▁hand,	-6075
roud	-6076
▁signal	-6077
ist,	-6078
nic	-6079
water	-6080
!"	-6081
mi	-6082
▁gram	-6083
lis	-6084
icht	-6085
night	-6086
▁fans	-6087
cdot	-6088
▁Matt	-6089
▁bright	-6090
▁{\	-6091
▁waiting	-6092
▁Max	-6093
▁자	-6094
▁(O	-6095
▁therefore	-6096
▁유	-6097
▁meters	-6098
▁they’re	-6099
▁distribut	-6100
anda	-6101
otic	-6102
▁agreement	-6103
▁Expl	-6104
▁coffee	-6105
osoph	-6106
▁processes	-6107
▁internal	-6108
▁CD	-6109
-the	-6110
▁fav	-6111
▁cris	-6112
eds	-6113
mathbb	-6114
жа	-6115
▁families	-6116
▁Ham	-6117
▁View	-6118
▁manage	-6119
▁organic	-6120
bol	-6121
▁hotel	-6122
▁driving	-6123
▁Str	-6124
▁Vir	-6125
Ex	-6126
▁31	-6127
▁یک	-6128
▁soul	-6129
▁veloc	-6130
reek	-6131
▁Call	-6132
▁Exp	-6133
▁repair	-6134
ंग	-6135
▁Office	-6136
hetic	-6137
▁researc	-6138
itud	-6139
ше	-6140
-10	-6141
▁revenue	-6142
▁occup	-6143
ेश	-6144
▁centur	-6145
▁library	-6146
(s)	-6147
ogen	-6148
▁Jew	-6149
▁“It	-6150
▁thick	-6151
▁Tre	-6152
▁mentioned	-6153
What	-6154
▁epis	-6155
idden	-6156
▁Project	-6157
▁Before	-6158
▁ment	-6159
▁advice	-6160
amente	-6161
vec	-6162
▁switch	-6163
▁schem	-6164
▁experienced	-6165
ış	-6166
▁Organ	-6167
igma	-6168
▁مح	-6169
▁diam	-6170
يل	-6171
▁Central	-6172
▁twe	-6173
▁الد	-6174
▁atmosp	-6175
▁clearly	-6176
▁agg	-6177
▁devices	-6178
هٔ	-6179
▁인	-6180
nect	-6181
▁Bas	-6182
では	-6183
orter	-6184
▁oxid	-6185
▁closed	-6186
▁exception	-6187
▁package	-6188
▁5,	-6189
▁obtained	-6190
▁Second	-6191
▁creative	-6192
cho	-6193
oyal	-6194
sch	-6195
▁reports	-6196
▁Services	-6197
▁Island	-6198
лу	-6199
▁Nat	-6200
▁essay	-6201
bar	-6202
▁showing	-6203
▁senior	-6204
رای	-6205
▁information,	-6206
ств	-6207
▁format	-6208
ba	-6209
▁well,	-6210
▁Việt	-6211
-to	-6212
▁Inf	-6213
▁proposed	-6214
▁subsc	-6215
によ	-6216
▁here,	-6217
▁operations	-6218
▁Oh	-6219
▁dial	-6220
▁wave	-6221
▁formed	-6222
▁status	-6223
rogen	-6224
▁Mass	-6225
▁conclus	-6226
iat	-6227
er:	-6228
▁decl	-6229
▁mission	-6230
chang	-6231
ounds	-6232
▁wis	-6233
▁wasn’t	-6234
ần	-6235
▁공	-6236
▁tid	-6237
ptom	-6238
▁starts	-6239
ные	-6240
▁internet	-6241
izz	-6242
▁metall	-6243
ensions	-6244
▁street	-6245
▁(5	-6246
▁Po	-6247
▁happened	-6248
▁camera	-6249
aya	-6250
ous.	-6251
▁minor	-6252
▁retail	-6253
▁craft	-6254
▁Carol	-6255
▁Well	-6256
re,	-6257
▁Equ	-6258
▁motiv	-6259
▁odd	-6260
othe	-6261
▁wife	-6262
ities,	-6263
▁배	-6264
▁DNA	-6265
▁know,	-6266
▁handle	-6267
▁launch	-6268
▁reached	-6269
зо	-6270
hedul	-6271
ness.	-6272
▁diagn	-6273
▁Chic	-6274
ді	-6275
▁Child	-6276
iled	-6277
inde	-6278
▁do.	-6279
^{\	-6280
ito	-6281
char	-6282
tr	-6283
▁edge	-6284
▁fabric	-6285
va	-6286
▁Land	-6287
▁luck	-6288
_f	-6289
▁tut	-6290
▁description	-6291
▁decide	-6292
IR	-6293
estival	-6294
▁Social	-6295
akt	-6296
▁equival	-6297
が、	-6298
▁rapid	-6299
▁beat	-6300
eld	-6301
pass	-6302
▁Ap	-6303
пе	-6304
▁reduction	-6305
▁specifically	-6306
ende	-6307
sequ	-6308
▁peak	-6309
▁Cr	-6310
▁tag	-6311
▁пре	-6312
▁الش	-6313
▁zero	-6314
isation	-6315
▁L.	-6316
▁Cat	-6317
86	-6318
time	-6319
ology,	-6320
gebra	-6321
▁gone	-6322
▁marri	-6323
▁conven	-6324
ення	-6325
▁discussion	-6326
▁belie	-6327
▁teaching	-6328
▁ने	-6329
iance	-6330
▁Given	-6331
▁(K	-6332
اف	-6333
ًا	-6334
how	-6335
ohol	-6336
hab	-6337
▁với	-6338
▁kon	-6339
ctural	-6340
▁station	-6341
▁selected	-6342
▁ID	-6343
▁राज	-6344
ress.	-6345
▁efforts	-6346
▁Gen	-6347
▁„	-6348
▁us,	-6349
▁proceed	-6350
▁veget	-6351
▁cart	-6352
▁Hill	-6353
▁رو	-6354
▁Association	-6355
encies	-6356
▁Offic	-6357
▁भी	-6358
▁tiss	-6359
▁vent	-6360
▁array	-6361
▁detailed	-6362
E.	-6363
▁completed	-6364
▁thr	-6365
▁pi	-6366
्ट	-6367
g.,	-6368
jo	-6369
وی	-6370
▁Scott	-6371
??	-6372
▁chat	-6373
▁stret	-6374
roy	-6375
odes	-6376
▁Fire	-6377
▁Custom	-6378
▁system,	-6379
▁tow	-6380
▁ju	-6381
▁eventually	-6382
▁چ	-6383
▁pel	-6384
▁sod	-6385
▁Word	-6386
89	-6387
▁З	-6388
▁danger	-6389
▁week.	-6390
▁Wood	-6391
▁Which	-6392
▁intellig	-6393
▁fruit	-6394
OP	-6395
ah,	-6396
▁importance	-6397
▁2x	-6398
▁combined	-6399
▁“H	-6400
▁qui	-6401
▁testing	-6402
▁Mil	-6403
ML	-6404
uses	-6405
▁meng	-6406
▁liber	-6407
▁continues	-6408
▁requirements	-6409
▁بود	-6410
ास	-6411
uz	-6412
하는	-6413
▁mental	-6414
▁say,	-6415
▁snow	-6416
▁Commit	-6417
)(	-6418
ır	-6419
▁Institute	-6420
▁profession	-6421
▁http://www.	-6422
elle	-6423
▁becoming	-6424
▁numerous	-6425
년~	-6426
ENT	-6427
▁phen	-6428
▁mostly	-6429
▁freedom	-6430
care	-6431
▁kick	-6432
▁32	-6433
として	-6434
enced	-6435
▁formula:	-6436
▁majority	-6437
ent.	-6438
-on	-6439
▁Bob	-6440
illa	-6441
▁myster	-6442
▁posted	-6443
▁daughter	-6444
▁rain	-6445
▁respectively	-6446
▁goals	-6447
▁Online	-6448
++	-6449
▁sau	-6450
▁Somet	-6451
▁area.	-6452
▁dalam	-6453
én	-6454
▁UN	-6455
▁reasons	-6456
▁inde	-6457
vention	-6458
▁бы	-6459
1]	-6460
ambda	-6461
▁musc	-6462
▁prove	-6463
▁scientific	-6464
outhern	-6465
▁Mot	-6466
世界	-6467
▁Jud	-6468
.com/	-6469
iation	-6470
▁furn	-6471
well	-6472
inese	-6473
リー	-6474
ستان	-6475
▁mad	-6476
▁calls	-6477
▁Texas	-6478
▁contrast	-6479
▁sale	-6480
▁silver	-6481
▁measures	-6482
list	-6483
▁solar	-6484
سم	-6485
▁depends	-6486
yan	-6487
▁Bud	-6488
▁있다.	-6489
othes	-6490
▁bah	-6491
▁Twitter	-6492
▁again,	-6493
acc	-6494
▁“B	-6495
87	-6496
▁Town	-6497
▁ago,	-6498
▁hang	-6499
▁pieces	-6500
▁Cost	-6501
▁pure	-6502
▁contem	-6503
▁we're	-6504
othing	-6505
ння	-6506
مل	-6507
▁fixed	-6508
▁tank	-6509
▁dedicated	-6510
▁older	-6511
▁tip	-6512
▁performed	-6513
yt	-6514
▁Ma	-6515
pers	-6516
▁Mont	-6517
-de	-6518
▁considering	-6519
▁pus	-6520
ない	-6521
x,	-6522
l.	-6523
▁조	-6524
▁Yes,	-6525
▁confidence	-6526
▁effectively	-6527
cks	-6528
▁Pyth	-6529
عة	-6530
▁На	-6531
▁foreign	-6532
nya	-6533
▁150	-6534
▁fundament	-6535
AB	-6536
ền	-6537
▁thousands	-6538
43	-6539
▁Engine	-6540
▁۱	-6541
bal	-6542
lock	-6543
(g)	-6544
▁delic	-6545
man,	-6546
C,	-6547
E,	-6548
▁NOT	-6549
iform	-6550
▁Tuesday	-6551
▁غ	-6552
▁balls	-6553
▁assume	-6554
하였	-6555
▁workers	-6556
fol	-6557
▁100%	-6558
▁you'll	-6559
▁Christmas	-6560
edia	-6561
ates,	-6562
ijk	-6563
▁pray	-6564
▁telev	-6565
▁increases	-6566
ày	-6567
년~)	-6568
▁mathemat	-6569
▁north	-6570
▁facilities	-6571
▁Peter	-6572
▁Only	-6573
opartic	-6574
▁garden	-6575
ments.	-6576
▁I'll	-6577
ще	-6578
▁variable	-6579
▁spr	-6580
▁Tur	-6581
▁Special	-6582
▁Real	-6583
▁Enter	-6584
▁income	-6585
▁cultural	-6586
▁km	-6587
▁components	-6588
door	-6589
abet	-6590
▁That's	-6591
▁هم	-6592
▁previously	-6593
cean	-6594
-sh	-6595
▁scale	-6596
▁End	-6597
ला	-6598
▁“T	-6599
▁fell	-6600
▁mixt	-6601
last	-6602
▁flight	-6603
▁default	-6604
\right)	-6605
▁game.	-6606
CT	-6607
▁mur	-6608
AA	-6609
era	-6610
▁week,	-6611
▁nuclear	-6612
▁Food	-6613
▁resident	-6614
▁adsor	-6615
▁joint	-6616
mathbf{	-6617
▁however	-6618
ician	-6619
▁Write	-6620
нов	-6621
ages.	-6622
▁3:	-6623
▁shap	-6624
د.	-6625
▁sexual	-6626
comm	-6627
raction	-6628
▁place.	-6629
▁achieved	-6630
ię	-6631
ते	-6632
onom	-6633
▁shad	-6634
il,	-6635
ści	-6636
times	-6637
icy	-6638
▁ring	-6639
ce,	-6640
os.	-6641
▁there,	-6642
▁lip	-6643
phas	-6644
PR	-6645
fast	-6646
▁Thursday	-6647
▁Ca	-6648
ompl	-6649
ộng	-6650
▁depart	-6651
су	-6652
▁guys	-6653
▁properties.	-6654
▁generate	-6655
▁uma	-6656
▁Blue	-6657
▁mail	-6658
p,	-6659
▁Calculate	-6660
än	-6661
▁120	-6662
ework	-6663
▁challenges	-6664
▁happens	-6665
▁willing	-6666
▁Mult	-6667
MAT	-6668
▁Academ	-6669
▁Cam	-6670
（19	-6671
▁Richard	-6672
gi	-6673
▁schools	-6674
▁discovered	-6675
eper	-6676
▁Week	-6677
▁communication	-6678
▁Rev	-6679
▁addition,	-6680
-pro	-6681
ie.	-6682
OD	-6683
resents	-6684
▁Director	-6685
▁partn	-6686
▁victim	-6687
▁lin	-6688
]:	-6689
▁Ve	-6690
▁"C	-6691
▁vast	-6692
▁south	-6693
▁watching	-6694
▁Network	-6695
▁honest	-6696
S,	-6697
し、	-6698
▁schedu	-6699
▁Sport	-6700
s."	-6701
▁국	-6702
67	-6703
▁것	-6704
▁motor	-6705
▁opened	-6706
itors	-6707
▁bon	-6708
phone	-6709
▁flat	-6710
▁strategies	-6711
▁whom	-6712
▁2004	-6713
スト	-6714
▁unless	-6715
▁advance	-6716
▁보	-6717
▁عن	-6718
▁societ	-6719
er’s	-6720
▁Further	-6721
▁protection	-6722
▁Wal	-6723
▁Dr	-6724
▁rou	-6725
▁nanopartic	-6726
▁alone	-6727
rete	-6728
uty	-6729
▁sed	-6730
▁degrees	-6731
uj	-6732
sum	-6733
UL	-6734
▁won't	-6735
________	-6736
▁discount	-6737
▁surrounding	-6738
▁cars	-6739
▁equations	-6740
cious	-6741
AG	-6742
▁Pri	-6743
って	-6744
▁trial	-6745
▁plenty	-6746
▁relative	-6747
▁RE	-6748
▁thành	-6749
▁synthesis	-6750
42	-6751
▁AND	-6752
▁promote	-6753
grad	-6754
▁sources	-6755
▁schedul	-6756
이다.	-6757
▁managed	-6758
kl	-6759
azz	-6760
▁Dou	-6761
▁tele	-6762
▁asking	-6763
ina,	-6764
▁charged	-6765
یل	-6766
▁Dig	-6767
ky	-6768
▁died	-6769
▁brings	-6770
▁observed	-6771
var	-6772
frac{\	-6773
▁mic	-6774
▁one,	-6775
▁sequence	-6776
▁others.	-6777
▁Build	-6778
▁interactions	-6779
isi	-6780
▁Canada	-6781
▁Bur	-6782
▁Kar	-6783
▁flo	-6784
▁vehicle	-6785
▁represents	-6786
▁England	-6787
ında	-6788
▁lit	-6789
▁clas	-6790
▁mal	-6791
▁raised	-6792
er's	-6793
▁Sign	-6794
▁confirm	-6795
burg	-6796
▁san	-6797
▁curve	-6798
▁distinct	-6799
▁historical	-6800
▁IP	-6801
▁processing	-6802
-th	-6803
cia	-6804
▁he’s	-6805
elta	-6806
▁Oper	-6807
▁pictures	-6808
▁habit	-6809
inity	-6810
▁Color	-6811
▁Thomas	-6812
what	-6813
▁rect	-6814
▁Despite	-6815
▁secure	-6816
▁Instead	-6817
▁wire	-6818
EE	-6819
▁grad	-6820
▁relatively	-6821
▁Wall	-6822
▁họ	-6823
▁Love	-6824
▁flag	-6825
iples	-6826
▁12.	-6827
▁void	-6828
ường	-6829
raph	-6830
s/	-6831
حد	-6832
▁shel	-6833
▁al.	-6834
eless	-6835
▁Through	-6836
▁Log	-6837
▁photograph	-6838
})	-6839
(f	-6840
▁H.	-6841
▁radius	-6842
▁optimal	-6843
▁introduced	-6844
▁Ho	-6845
тель	-6846
▁interval	-6847
▁spending	-6848
▁Type	-6849
▁landsc	-6850
ommod	-6851
▁survey	-6852
▁mainten	-6853
ター	-6854
▁session	-6855
▁purpos	-6856
esh	-6857
▁“M	-6858
▁coe	-6859
-9	-6860
▁Ut	-6861
▁reducing	-6862
▁classes	-6863
▁reality	-6864
▁you’ve	-6865
▁Lo	-6866
edy	-6867
▁sharing	-6868
se,	-6869
▁remark	-6870
▁equation:	-6871
▁Commission	-6872
iro	-6873
ाष	-6874
itions	-6875
▁те	-6876
▁he's	-6877
▁주	-6878
▁Hen	-6879
▁classic	-6880
▁leadership	-6881
رت	-6882
allel	-6883
▁exercise	-6884
het	-6885
▁(V	-6886
▁48	-6887
going	-6888
▁accident	-6889
▁Cu	-6890
omial	-6891
-n	-6892
ке	-6893
▁editor	-6894
▁returned	-6895
مد	-6896
osh	-6897
▁I'd	-6898
▁fourth	-6899
▁||	-6900
ant.	-6901
ischen	-6902
▁leaders	-6903
से	-6904
▁possible.	-6905
했다.	-6906
▁Award	-6907
▁Light	-6908
ker	-6909
ager	-6910
▁tells	-6911
▁holiday	-6912
iers	-6913
▁forg	-6914
▁entry	-6915
▁accompl	-6916
acing	-6917
▁beauty	-6918
▁practical	-6919
▁Que	-6920
▁polar	-6921
▁"It	-6922
▁tast	-6923
-G	-6924
selv	-6925
▁absolutely	-6926
▁fort	-6927
inh	-6928
▁то	-6929
▁I’ll	-6930
FT	-6931
urop	-6932
▁ban	-6933
▁wasn't	-6934
▁push	-6935
_s	-6936
ões	-6937
änd	-6938
}{\	-6939
▁below.	-6940
▁football	-6941
▁so,	-6942
▁symptom	-6943
▁extract	-6944
-\	-6945
▁ist	-6946
D,	-6947
▁crowd	-6948
▁days.	-6949
▁department	-6950
▁prime	-6951
ossible	-6952
_c	-6953
▁leader	-6954
▁I’d	-6955
▁ме	-6956
ocket	-6957
ét	-6958
▁Jose	-6959
stein	-6960
▁expensive	-6961
▁listed	-6962
iche	-6963
▁excess	-6964
▁divers	-6965
▁listen	-6966
▁Ro	-6967
▁shut	-6968
▁succ	-6969
▁impl	-6970
▁W.	-6971
ress,	-6972
▁Grand	-6973
▁Pay	-6974
▁scal	-6975
▁spring	-6976
▁familiar	-6977
▁comfortable	-6978
ages,	-6979
▁rise	-6980
▁trick	-6981
inating	-6982
▁ста	-6983
ston	-6984
▁resol	-6985
▁putting	-6986
▁otherwise	-6987
щи	-6988
rect	-6989
▁proud	-6990
▁Lu	-6991
▁experiences	-6992
▁layer	-6993
q)	-6994
▁outcom	-6995
asp	-6996
▁fle	-6997
ard,	-6998
▁Bra	-6999
hors	-7000
▁Does	-7001
▁metab	-7002
zed	-7003
▁self-	-7004
oney	-7005
wide	-7006
''	-7007
▁=>	-7008
▁empt	-7009
▁Company	-7010
ाद	-7011
enses	-7012
aft	-7013
▁brows	-7014
▁نی	-7015
▁belief	-7016
sm	-7017
ribe	-7018
▁Lead	-7019
▁Invest	-7020
icit	-7021
▁Vict	-7022
क्ष	-7023
▁Jon	-7024
ều	-7025
▁transm	-7026
itz	-7027
▁claims	-7028
▁Inte	-7029
▁apparent	-7030
▁2021	-7031
ực	-7032
▁administr	-7033
mes	-7034
▁mouth	-7035
▁absorption	-7036
▁Gre	-7037
▁reactions	-7038
pec	-7039
▁i.	-7040
▁territ	-7041
▁Exper	-7042
stra	-7043
▁drugs	-7044
▁raise	-7045
▁corner	-7046
dered	-7047
gypt	-7048
▁focused	-7049
▁acceler	-7050
▁exchange	-7051
▁carried	-7052
▁possibly	-7053
ан	-7054
▁Congress	-7055
feren	-7056
▁domain	-7057
▁ben	-7058
▁Nor	-7059
▁Ter	-7060
▁data.	-7061
id,	-7062
▁zu	-7063
▁Press	-7064
▁bought	-7065
▁cream	-7066
":	-7067
▁Contin	-7068
osph	-7069
▁laun	-7070
▁her.	-7071
▁Old	-7072
▁ré	-7073
▁integral	-7074
ala	-7075
▁weap	-7076
▁recip	-7077
▁Posted	-7078
▁nom	-7079
▁atoms	-7080
▁island	-7081
unic	-7082
▁Team	-7083
▁decor	-7084
iej	-7085
▁सा	-7086
ه‌های	-7087
▁ngh	-7088
RA	-7089
▁parameters	-7090
xic	-7091
king	-7092
okes	-7093
▁binding	-7094
▁jobs	-7095
▁sea	-7096
pet	-7097
▁tang	-7098
▁transaction	-7099
ochemical	-7100
▁operation	-7101
▁đã	-7102
▁Report	-7103
▁turns	-7104
8)	-7105
▁عام	-7106
▁shar	-7107
ंद	-7108
漫画	-7109
lie	-7110
/c	-7111
0.0	-7112
▁corresponding	-7113
ря	-7114
_0	-7115
▁appeared	-7116
▁opposite	-7117
▁Du	-7118
ła	-7119
عت	-7120
▁holding	-7121
▁procedure	-7122
ộc	-7123
▁greatest	-7124
▁Chinese	-7125
ня —	-7126
(d	-7127
▁defense	-7128
1:	-7129
▁Orig	-7130
▁percentage	-7131
اء	-7132
▁الن	-7133
▁Wednesday	-7134
▁mig	-7135
その	-7136
Er	-7137
▁vision	-7138
▁AL	-7139
년)	-7140
/0	-7141
▁3D	-7142
▁volunte	-7143
▁desire	-7144
apers	-7145
▁경	-7146
active	-7147
▁Full	-7148
▁пере	-7149
▁1/2	-7150
▁generated	-7151
istem	-7152
▁Question	-7153
▁experience.	-7154
▁external	-7155
▁talent	-7156
====	-7157
▁feels	-7158
▁від	-7159
▁institution	-7160
-le	-7161
i:	-7162
▁AD	-7163
▁depth	-7164
▁tight	-7165
▁wy	-7166
▁f(x)	-7167
▁الك	-7168
▁loan	-7169
▁describe	-7170
▁Lab	-7171
▁कि	-7172
jection	-7173
▁detect	-7174
▁then,	-7175
▁conflic	-7176
▁Jim	-7177
onym	-7178
il.	-7179
pat	-7180
▁helpful	-7181
це	-7182
sey	-7183
▁pharm	-7184
▁complic	-7185
line.	-7186
▁ended	-7187
▁tab	-7188
▁${\displaystyle	-7189
orthern	-7190
umer	-7191
▁gent	-7192
▁facilit	-7193
▁comprehens	-7194
aked	-7195
ially	-7196
▁expans	-7197
ails	-7198
organ	-7199
(a	-7200
adi	-7201
▁из	-7202
▁III	-7203
▁6,	-7204
▁resource	-7205
▁Hand	-7206
bur	-7207
▁Those	-7208
CC	-7209
ocument	-7210
dd	-7211
▁motion	-7212
▁Contact	-7213
▁Keep	-7214
ос	-7215
▁returns	-7216
▁together.	-7217
FOR	-7218
▁ven	-7219
▁Lin	-7220
▁"O	-7221
▁responsibility	-7222
▁${	-7223
▁má	-7224
▁chick	-7225
▁Tru	-7226
▁affected	-7227
▁프	-7228
▁society	-7229
▁belong	-7230
ensional	-7231
▁calculated	-7232
ức	-7233
▁Card	-7234
y)	-7235
omer	-7236
▁Pan	-7237
b.	-7238
▁Van	-7239
rate	-7240
(3	-7241
▁industrial	-7242
_i	-7243
all,	-7244
▁Sand	-7245
▁notes	-7246
には	-7247
▁winning	-7248
▁$x	-7249
▁Head	-7250
▁is.	-7251
▁Today	-7252
▁feedback	-7253
сько	-7254
▁supposed	-7255
oster	-7256
áng	-7257
とい	-7258
rip	-7259
▁Ill	-7260
▁1000	-7261
input	-7262
án	-7263
▁they're	-7264
▁colors	-7265
▁summary,	-7266
gs	-7267
unning	-7268
alpha	-7269
▁structures	-7270
▁organizations	-7271
Un	-7272
ोग	-7273
▁Math	-7274
▁Ent	-7275
ết	-7276
ors.	-7277
▁chosen	-7278
▁си	-7279
▁animals	-7280
▁database	-7281
▁fly	-7282
ğı	-7283
▁says.	-7284
ến	-7285
SP	-7286
▁sugar	-7287
▁water.	-7288
▁twice	-7289
▁(which	-7290
it,	-7291
▁generation	-7292
ön	-7293
▁hero	-7294
▁gather	-7295
bu	-7296
lem	-7297
▁inhib	-7298
▁virtual	-7299
▁accommod	-7300
▁개	-7301
▁Non	-7302
▁الف	-7303
▁speech	-7304
▁Ira	-7305
▁missing	-7306
▁소	-7307
ный	-7308
▁plants	-7309
▁fasc	-7310
‌ها	-7311
▁Author	-7312
road	-7313
▁Energy	-7314
▁(J	-7315
eline	-7316
_p	-7317
▁Sar	-7318
▁spin	-7319
▁(W	-7320
way,	-7321
▁selling	-7322
▁ISBN	-7323
▁sess	-7324
▁ett	-7325
um,	-7326
▁N.	-7327
eral	-7328
ates.	-7329
▁Jeff	-7330
▁explan	-7331
ants,	-7332
▁rough	-7333
▁180	-7334
▁plastic	-7335
ello	-7336
host	-7337
\\	-7338
▁"D	-7339
fection	-7340
▁African	-7341
ük	-7342
री	-7343
ism.	-7344
ları	-7345
▁consumption	-7346
▁bil	-7347
ampionship	-7348
▁buying	-7349
▁Prote	-7350
▁Whether	-7351
ibilities	-7352
nov	-7353
icing	-7354
▁formal	-7355
▁sounds	-7356
▁Education	-7357
▁Loc	-7358
!)	-7359
EG	-7360
alah	-7361
▁grav	-7362
▁emphas	-7363
▁era	-7364
▁frequency	-7365
ubb	-7366
▁winter	-7367
ch,	-7368
▁fif	-7369
▁home,	-7370
orph	-7371
▁발	-7372
▁stim	-7373
gent	-7374
▁Adv	-7375
!”	-7376
пу	-7377
▁Fund	-7378
▁arrest	-7379
▁on,	-7380
▁tough	-7381
он	-7382
(s	-7383
iến	-7384
▁fashion	-7385
▁aspects	-7386
رك	-7387
▁cards	-7388
=0	-7389
▁alcohol	-7390
رة	-7391
ầu	-7392
▁diet	-7393
▁dance	-7394
▁facility	-7395
▁clinical	-7396
▁ze	-7397
onic	-7398
▁enzyme	-7399
▁위	-7400
issions	-7401
vens	-7402
▁stable	-7403
▁consequ	-7404
▁upper	-7405
▁Bal	-7406
▁Virgin	-7407
▁کرد	-7408
▁valuable	-7409
▁sufficient	-7410
бу	-7411
▁e.	-7412
atan	-7413
▁$3	-7414
iant	-7415
ем	-7416
ui	-7417
▁wav	-7418
rot	-7419
▁USA	-7420
rument	-7421
▁->	-7422
▁circumst	-7423
▁operator	-7424
▁instrument	-7425
▁Link	-7426
▁quad	-7427
▁insert	-7428
ista	-7429
▁evol	-7430
▁Atlant	-7431
▁prepare	-7432
られ	-7433
▁Medic	-7434
▁optical	-7435
ian,	-7436
▁shock	-7437
▁spectrum	-7438
▁लि	-7439
▁McC	-7440
▁math	-7441
▁Music	-7442
▁Western	-7443
92	-7444
▁process,	-7445
▁Government	-7446
bi	-7447
▁holds	-7448
Te	-7449
▁7,	-7450
▁Upd	-7451
ions.	-7452
k.	-7453
يم	-7454
▁walking	-7455
द्	-7456
▁navig	-7457
▁basket	-7458
▁injur	-7459
▁standing	-7460
▁Coll	-7461
olo	-7462
▁resistance	-7463
▁male	-7464
ess,	-7465
related	-7466
▁illustr	-7467
▁season.	-7468
▁passeng	-7469
▁differences	-7470
▁등	-7471
ima	-7472
idad	-7473
▁gru	-7474
▁tan	-7475
▁officials	-7476
oxide	-7477
▁wine	-7478
▁sac	-7479
igned	-7480
MP	-7481
гра	-7482
out.	-7483
2+	-7484
ions,	-7485
▁fields	-7486
▁모	-7487
▁Ein	-7488
▁Mike	-7489
▁business.	-7490
osc	-7491
pload	-7492
')	-7493
▁water,	-7494
iska	-7495
upp	-7496
▁(~	-7497
▁usual	-7498
▁Les	-7499
▁hur	-7500
▁width	-7501
▁오	-7502
sen	-7503
▁stopp	-7504
▁vote	-7505
ản	-7506
▁“W	-7507
class	-7508
93	-7509
imeter	-7510
-sc	-7511
-and	-7512
▁Human	-7513
▁causes	-7514
▁profile	-7515
▁"P	-7516
▁incorpor	-7517
▁confident	-7518
▁contribute	-7519
▁resolution	-7520
▁signed	-7521
ograp	-7522
▁Democr	-7523
mathbb{	-7524
▁produces	-7525
▁vibr	-7526
▁F.	-7527
ell'	-7528
▁AR	-7529
▁false	-7530
94	-7531
▁MS	-7532
▁11.	-7533
का	-7534
▁cond	-7535
▁supported	-7536
▁tah	-7537
▁می‌ش	-7538
▁intended	-7539
▁welcome	-7540
▁Georg	-7541
▁problem.	-7542
iner	-7543
▁scene	-7544
inet	-7545
▁1990	-7546
%.	-7547
▁Additionally,	-7548
pected	-7549
▁incl	-7550
▁magaz	-7551
▁instant	-7552
▁Es	-7553
▁Community	-7554
h.	-7555
\in	-7556
▁joined	-7557
▁pump	-7558
ập	-7559
▁의	-7560
▁stars	-7561
▁filter	-7562
▁updated	-7563
▁Mer	-7564
ação	-7565
▁velocity	-7566
▁HT	-7567
▁river	-7568
hus	-7569
▁brown	-7570
ống	-7571
orney	-7572
ycl	-7573
luding	-7574
▁bacter	-7575
▁Development	-7576
▁Lake	-7577
▁400	-7578
ån	-7579
▁ran	-7580
▁Kore	-7581
▁suppl	-7582
mic	-7583
look	-7584
▁2003	-7585
▁Arab	-7586
▁variables	-7587
▁corporate	-7588
▁Ba	-7589
ội	-7590
▁Amazon	-7591
▁crystal	-7592
ferent	-7593
BA	-7594
▁(e.g.,	-7595
▁ча	-7596
▁für	-7597
▁calling	-7598
▁concentrations	-7599
df	-7600
रा	-7601
▁isol	-7602
▁Media	-7603
▁homes	-7604
ước	-7605
▁10^	-7606
▁Chris	-7607
使用	-7608
▁Current	-7609
▁knowing	-7610
-N	-7611
E:	-7612
–19	-7613
mar	-7614
zing	-7615
rid	-7616
▁यह	-7617
▁perman	-7618
IA	-7619
▁Aud	-7620
▁NY	-7621
ーム	-7622
▁minute	-7623
年，	-7624
alı	-7625
▁define	-7626
▁morn	-7627
▁site.	-7628
▁prze	-7629
▁Sep	-7630
▁universe	-7631
▁tips	-7632
▁trees	-7633
▁배우	-7634
▁دار	-7635
вер	-7636
ской	-7637
])	-7638
SO	-7639
▁cub	-7640
cular	-7641
▁actions	-7642
▁literature	-7643
rastructure	-7644
▁musical	-7645
ami	-7646
▁assemb	-7647
▁Artic	-7648
io.	-7649
▁ampl	-7650
▁academic	-7651
кі	-7652
▁channel	-7653
▁owner	-7654
▁drawing	-7655
over,	-7656
▁Conf	-7657
▁"N	-7658
▁li	-7659
▁away.	-7660
ically,	-7661
se.	-7662
▁consistent	-7663
イン	-7664
41	-7665
vo	-7666
▁orient	-7667
▁lived	-7668
▁chocol	-7669
▁inspired	-7670
▁Search	-7671
ılı	-7672
▁Gard	-7673
▁مو	-7674
under	-7675
stitut	-7676
iger	-7677
▁Men	-7678
▁chapter	-7679
▁sister	-7680
▁records	-7681
作品	-7682
ım	-7683
▁Israel	-7684
▁steel	-7685
▁Don’t	-7686
▁sitting	-7687
▁연	-7688
ivered	-7689
年（	-7690
▁funds	-7691
▁Maybe	-7692
▁cz	-7693
▁مت	-7694
▁seat	-7695
brid	-7696
▁werd	-7697
van	-7698
▁horiz	-7699
▁manager	-7700
airs	-7701
▁Right	-7702
▁proport	-7703
▁SP	-7704
fty	-7705
▁Then,	-7706
▁“O	-7707
▁antic	-7708
▁technique	-7709
-E	-7710
▁Econom	-7711
▁भार	-7712
▁Ol	-7713
▁committed	-7714
вы	-7715
QL	-7716
के	-7717
▁CEO	-7718
▁articles	-7719
shop	-7720
▁beach	-7721
▁Applic	-7722
RL	-7723
▁å	-7724
▁10,	-7725
/p	-7726
iture	-7727
▁thread	-7728
/2)	-7729
una	-7730
fall	-7731
▁swim	-7732
▁seeking	-7733
 го	-7734
▁atmosphere	-7735
▁witness	-7736
▁division	-7737
▁researchers	-7738
لم	-7739
-by	-7740
▁automatically	-7741
▁Win	-7742
68	-7743
▁Museum	-7744
▁reviews	-7745
▁ли	-7746
▁accurate	-7747
akers	-7748
▁Key	-7749
▁it?	-7750
▁>>	-7751
▁Louis	-7752
▁caught	-7753
▁Consider	-7754
▁thoughts	-7755
it.	-7756
▁Indust	-7757
▁identified	-7758
▁Martin	-7759
▁economy	-7760
▁doubt	-7761
▁products.	-7762
partial	-7763
جم	-7764
▁g/mol	-7765
▁in,	-7766
یت	-7767
▁Women	-7768
▁construct	-7769
▁Lar	-7770
▁totally	-7771
57	-7772
▁copper	-7773
▁surger	-7774
▁employee	-7775
theta	-7776
▁not.	-7777
▁colle	-7778
▁ath	-7779
▁Florida	-7780
▁god	-7781
(t)	-7782
▁elev	-7783
▁estimate	-7784
-a	-7785
نگ	-7786
▁inner	-7787
▁measured	-7788
ifts	-7789
▁recon	-7790
▁other.	-7791
▁encourage	-7792
ued	-7793
▁Final	-7794
▁3)	-7795
inder	-7796
▁Figure	-7797
s,”	-7798
▁gal	-7799
صر	-7800
とな	-7801
-1)	-7802
age:	-7803
▁mode	-7804
uh	-7805
ска	-7806
▁(l	-7807
▁youth	-7808
▁salt	-7809
▁coast	-7810
▁evolution	-7811
▁aid	-7812
▁(x	-7813
inem	-7814
osis	-7815
▁History	-7816
▁Did	-7817
▁funding	-7818
▁ell	-7819
▁sudden	-7820
研究	-7821
rog	-7822
▁quiet	-7823
▁nitrogen	-7824
кт	-7825
atus	-7826
▁WH	-7827
▁Iraq	-7828
lation	-7829
▁television	-7830
▁educational	-7831
▁Lim	-7832
▁forced	-7833
▁rig	-7834
apping	-7835
▁YO	-7836
EST	-7837
▁ini	-7838
▁hearing	-7839
▁continuous	-7840
▁"W	-7841
▁Far	-7842
▁пра	-7843
▁Cast	-7844
9)	-7845
った。	-7846
▁aan	-7847
▁renew	-7848
▁long-term	-7849
hent	-7850
iate	-7851
▁فر	-7852
▁(see	-7853
orough	-7854
▁($	-7855
▁từ	-7856
▁conj	-7857
▁Joe	-7858
▁kom	-7859
▁پی	-7860
▁mais	-7861
▁\end{	-7862
Con	-7863
▁roof	-7864
▁anti-	-7865
▁framework	-7866
etz	-7867
▁wearing	-7868
▁subs	-7869
ungs	-7870
▁iç	-7871
oration	-7872
io,	-7873
ments,	-7874
▁laugh	-7875
ュー	-7876
▁hat	-7877
▁chief	-7878
▁particles	-7879
▁religious	-7880
▁herself	-7881
▁Secret	-7882
ững	-7883
▁Mean	-7884
▁realize	-7885
olds	-7886
▁wedding	-7887
emb	-7888
▁Luc	-7889
▁prospect	-7890
▁Americans	-7891
▁spons	-7892
▁battle	-7893
▁CS	-7894
-day	-7895
▁words,	-7896
ellect	-7897
▁cheap	-7898
▁Daniel	-7899
▁Society	-7900
że	-7901
▁defend	-7902
▁night.	-7903
Error	-7904
RI	-7905
▁century	-7906
▁emotional	-7907
▁nine	-7908
▁philosoph	-7909
/3	-7910
ang,	-7911
▁Vide	-7912
][	-7913
नी	-7914
▁possess	-7915
▁Haw	-7916
▁substr	-7917
▁yester	-7918
▁balanced	-7919
áp	-7920
ton,	-7921
न्द	-7922
▁अन	-7923
▁Point	-7924
▁G.	-7925
▁houses	-7926
▁trouble	-7927
▁implic	-7928
▁contest	-7929
▁х	-7930
▁Wild	-7931
▁manif	-7932
▁Global	-7933
position	-7934
سب	-7935
zn	-7936
▁NE	-7937
▁circuit	-7938
can	-7939
▁colour	-7940
文化	-7941
▁worry	-7942
▁closer	-7943
ія	-7944
▁pas	-7945
▁taste	-7946
▁Federal	-7947
▁\in	-7948
▁interface	-7949
endo	-7950
▁friendly	-7951
▁Australia	-7952
▁Dif	-7953
iest	-7954
▁dil	-7955
▁sor	-7956
using	-7957
▁topic	-7958
▁killed	-7959
▁panel	-7960
▁diverse	-7961
▁pra	-7962
ained	-7963
iments	-7964
▁Islam	-7965
▁participate	-7966
->	-7967
▁stack	-7968
84	-7969
lambda	-7970
▁supporting	-7971
▁female	-7972
▁Ram	-7973
▁Union	-7974
alled	-7975
arian	-7976
▁parties	-7977
bagai	-7978
▁Next,	-7979
▁answers	-7980
▁Ell	-7981
▁recovery	-7982
▁Bir	-7983
▁Game	-7984
▁hours.	-7985
▁residents	-7986
ormal	-7987
ailability	-7988
▁eating	-7989
▁\begin{	-7990
▁kt	-7991
▁Pac	-7992
▁failed	-7993
▁sho	-7994
▁scre	-7995
rick	-7996
▁anywhere	-7997
▁reaction.	-7998
▁Ha	-7999
yer	-8000
cht	-8001
▁tor	-8002
▁Spring	-8003
▁back.	-8004
▁ON	-8005
ille	-8006
▁2002	-8007
▁accu	-8008
▁equivalent	-8009
▁Las	-8010
▁enjoyed	-8011
▁District	-8012
▁password	-8013
▁objects	-8014
rij	-8015
▁де	-8016
iano	-8017
▁سال	-8018
▁gel	-8019
▁stabil	-8020
▁mountain	-8021
sta	-8022
oria	-8023
▁truck	-8024
oma	-8025
▁compare	-8026
▁standards	-8027
▁हु	-8028
▁Steve	-8029
▁impossible	-8030
'.	-8031
ono	-8032
▁removed	-8033
▁to.	-8034
▁guarant	-8035
▁evening	-8036
▁solvent	-8037
arsh	-8038
VID	-8039
▁(h	-8040
▁times.	-8041
▁university	-8042
▁나	-8043
▁Squ	-8044
▁posts	-8045
▁serving	-8046
aki	-8047
eps	-8048
▁sel	-8049
larak	-8050
▁Jac	-8051
▁carefully	-8052
awa	-8053
▁بن	-8054
OC	-8055
▁CP	-8056
eling	-8057
▁mixed	-8058
ries.	-8059
▁sodium	-8060
▁shopping	-8061
▁estimated	-8062
ться	-8063
▁electrical	-8064
▁represented	-8065
56	-8066
ه‌است	-8067
▁stated	-8068
▁typical	-8069
R.	-8070
▁ped	-8071
▁untuk	-8072
▁pregn	-8073
▁bringing	-8074
▁یا	-8075
▁Pot	-8076
ifies	-8077
▁triangle	-8078
▁begins	-8079
▁planet	-8080
▁Date	-8081
▁pit	-8082
▁Trump	-8083
▁estate	-8084
▁coverage	-8085
▁terror	-8086
▁Know	-8087
▁though,	-8088
▁hun	-8089
▁noted	-8090
في	-8091
IF	-8092
ede	-8093
▁Medical	-8094
▁documents	-8095
▁announce	-8096
▁uit	-8097
▁styl	-8098
ده	-8099
▁frame	-8100
▁fundamental	-8101
▁inspir	-8102
iences	-8103
▁severe	-8104
یان	-8105
▁charges	-8106
▁vit	-8107
▁inches	-8108
▁Bab	-8109
▁Thus,	-8110
▁executive	-8111
حت	-8112
▁owners	-8113
▁iPh	-8114
▁Students	-8115
▁Fact	-8116
iveness	-8117
▁experts	-8118
-k	-8119
DP	-8120
hol	-8121
▁integer	-8122
سي	-8123
▁Charles	-8124
▁Egypt	-8125
▁storm	-8126
）。	-8127
▁ст	-8128
▁v.	-8129
ı.	-8130
▁ख	-8131
▁OR	-8132
▁Conference	-8133
▁스	-8134
rend	-8135
▁2022	-8136
▁administration	-8137
▁Master	-8138
▁crew	-8139
▁wealth	-8140
▁delivered	-8141
nce	-8142
▁API	-8143
▁8,	-8144
▁gö	-8145
▁mac	-8146
r,	-8147
and,	-8148
▁sad	-8149
▁signs	-8150
با	-8151
epend	-8152
▁maintenance	-8153
ries,	-8154
▁Beach	-8155
▁register	-8156
▁we’ve	-8157
▁agency	-8158
▁instance,	-8159
▁như	-8160
▁future.	-8161
mathcal	-8162
▁draft	-8163
ている	-8164
rack	-8165
▁mixture	-8166
▁election	-8167
▁extended	-8168
یم	-8169
0000	-8170
▁boost	-8171
▁practices	-8172
▁neck	-8173
▁Cath	-8174
▁Ox	-8175
▁وت	-8176
하고	-8177
▁któ	-8178
▁Hy	-8179
ears	-8180
ortunately,	-8181
ra,	-8182
▁exciting	-8183
▁مد	-8184
▁i.e.	-8185
▁Family	-8186
▁divide	-8187
km	-8188
▁Japanese	-8189
json	-8190
azione	-8191
▁joy	-8192
▁maintaining	-8193
▁PDF	-8194
▁mir	-8195
aks	-8196
anie	-8197
▁Ros	-8198
▁communities	-8199
▁evaluate	-8200
▁^	-8201
▁seconds	-8202
▁chính	-8203
org/	-8204
▁forum	-8205
▁chart	-8206
ць	-8207
array	-8208
▁decisions	-8209
reme	-8210
▁infin	-8211
▁household	-8212
▁NH	-8213
▁hidden	-8214
▁outdoor	-8215
raint	-8216
west	-8217
▁you've	-8218
▁teachers	-8219
▁Creat	-8220
▁constru	-8221
ài	-8222
ली	-8223
▁fraction	-8224
▁서	-8225
▁massive	-8226
\,	-8227
▁kil	-8228
よう	-8229
人民	-8230
hat	-8231
▁narr	-8232
▁execut	-8233
▁factory	-8234
▁recommended	-8235
▁비	-8236
▁adj	-8237
▁كان	-8238
▁Watch	-8239
▁launched	-8240
▁2001	-8241
▁League	-8242
▁Mur	-8243
▁Rest	-8244
▁expressed	-8245
ikan	-8246
▁innovative	-8247
▁seg	-8248
▁explained	-8249
▁Committee	-8250
(2)	-8251
یک	-8252
▁reform	-8253
▁etc	-8254
▁enable	-8255
하여	-8256
oen	-8257
ele	-8258
rint	-8259
▁pil	-8260
ynomial	-8261
▁delight	-8262
▁마	-8263
never	-8264
agement	-8265
قة	-8266
▁delay	-8267
bl 	-8268
▁(th	-8269
▁substant	-8270
▁larg	-8271
▁smok	-8272
▁partnership	-8273
▁jest	-8274
CS	-8275
▁centre	-8276
▁recipe	-8277
▁phenomen	-8278
stream	-8279
▁advis	-8280
▁picked	-8281
▁lie	-8282
▁Learn	-8283
▁be.	-8284
istan	-8285
▁widely	-8286
ło	-8287
▁telling	-8288
▁services.	-8289
ko	-8290
ley,	-8291
оло	-8292
▁sight	-8293
▁unknown	-8294
».	-8295
▁concerns	-8296
▁teen	-8297
▁decrease	-8298
▁revolution	-8299
ют	-8300
▁!=	-8301
▁schedule	-8302
▁not,	-8303
▁none	-8304
▁rein	-8305
▁Control	-8306
▁experimental	-8307
ią	-8308
ải	-8309
▁a.m.	-8310
▁किया	-8311
rich	-8312
▁incom	-8313
▁Columb	-8314
▁cases,	-8315
▁agricult	-8316
▁_	-8317
▁use.	-8318
▁days,	-8319
▁affects	-8320
▁ultimately	-8321
▁ş	-8322
▁debt	-8323
▁dogs	-8324
▁ride	-8325
value	-8326
▁point,	-8327
▁Cup	-8328
▁Support	-8329
▁Solution	-8330
▁minutes.	-8331
En	-8332
emp	-8333
▁templ	-8334
▁Police	-8335
▁enem	-8336
्म	-8337
▁relationships	-8338
▁T.	-8339
▁veter	-8340
▁aren’t	-8341
def	-8342
Ar	-8343
▁consumer	-8344
ifications	-8345
▁Mathemat	-8346
▁Download	-8347
▁Mach	-8348
▁lunch	-8349
len	-8350
▁Gall	-8351
(1)	-8352
▁Technology	-8353
zo	-8354
ifer	-8355
pan	-8356
▁spaces	-8357
▁Russian	-8358
▁treated	-8359
▁Security	-8360
▁country.	-8361
cknow	-8362
되었다.	-8363
antic	-8364
ill,	-8365
▁potentially	-8366
lan	-8367
▁Perform	-8368
leh	-8369
▁nel	-8370
ow,	-8371
▁prison	-8372
▁down.	-8373
▁sig	-8374
▁advoc	-8375
ograf	-8376
▁awes	-8377
▁videos	-8378
▁parallel	-8379
بل	-8380
وز	-8381
▁Lad	-8382
▁favour	-8383
uster	-8384
▁orders	-8385
▁serves	-8386
▁Administ	-8387
▁$5	-8388
▁Ep	-8389
▁static	-8390
▁indu	-8391
▁Series	-8392
aire	-8393
ingly	-8394
▁Init	-8395
▁olarak	-8396
ownt	-8397
-like	-8398
▁website.	-8399
▁oblig	-8400
▁critic	-8401
▁service.	-8402
FL	-8403
rik	-8404
▁Bost	-8405
▁plane	-8406
ants.	-8407
▁không	-8408
▁analys	-8409
▁circle	-8410
▁Nav	-8411
▁principal	-8412
▁Unf	-8413
▁underst	-8414
▁reward	-8415
▁immig	-8416
▁Though	-8417
uan	-8418
▁times,	-8419
▁couldn’t	-8420
elled	-8421
ether	-8422
▁برای	-8423
weight	-8424
▁tahun	-8425
▁architecture	-8426
▁Four	-8427
▁вы	-8428
▁Amer	-8429
olars	-8430
guy	-8431
▁king	-8432
▁worst	-8433
▁lux	-8434
-O	-8435
▁creates	-8436
▁family.	-8437
▁uniform	-8438
ém	-8439
▁Fall	-8440
cm	-8441
ems	-8442
▁mes	-8443
It	-8444
▁adalah	-8445
ット	-8446
hew	-8447
draw	-8448
▁indeed	-8449
▁neighborhood	-8450
▁Os	-8451
という	-8452
ighter	-8453
▁cycle	-8454
▁Plan:	-8455
▁spiritual	-8456
▁principles	-8457
하였다.	-8458
▁75	-8459
▁consists	-8460
▁subsequent	-8461
▁monthly	-8462
63	-8463
▁$10	-8464
▁Kel	-8465
▁tun	-8466
▁license	-8467
ський	-8468
▁Francisc	-8469
▁Table	-8470
▁Minister	-8471
▁Market	-8472
▁entirely	-8473
ıs	-8474
▁guard	-8475
▁There’s	-8476
▁hal	-8477
nych	-8478
▁soc	-8479
▁protest	-8480
▁shipping	-8481
▁số	-8482
▁we'll	-8483
▁hundreds	-8484
▁फ	-8485
▁MP	-8486
ist.	-8487
▁discipl	-8488
7)	-8489
▁Try	-8490
▁Way	-8491
▁citizens	-8492
▁specified	-8493
ール	-8494
bour	-8495
ії	-8496
▁Wel	-8497
▁fellow	-8498
▁artists	-8499
ode.	-8500
▁infrastructure	-8501
▁conversation	-8502
▁ä	-8503
aze	-8504
rak	-8505
▁widget	-8506
▁pm	-8507
race	-8508
▁believed	-8509
▁district	-8510
▁interior	-8511
ник	-8512
▁EN	-8513
▁alter	-8514
▁Pop	-8515
ği	-8516
ını	-8517
▁bread	-8518
▁geometry	-8519
gal	-8520
▁“D	-8521
▁failure	-8522
2]	-8523
ی،	-8524
▁broken	-8525
▁Soft	-8526
evidence	-8527
▁1980	-8528
▁maxim	-8529
▁Access	-8530
▁comprehensive	-8531
▁appreciate	-8532
▁бу	-8533
▁breast	-8534
▁세	-8535
▁33	-8536
▁hall	-8537
▁Times	-8538
▁batt	-8539
▁Ak	-8540
спо	-8541
ции	-8542
▁married	-8543
83	-8544
в,	-8545
olit	-8546
andon	-8547
▁tests	-8548
▁vul	-8549
▁pert	-8550
▁Three	-8551
▁area,	-8552
▁anx	-8553
▁bat	-8554
▁"F	-8555
▁dy	-8556
▁AB	-8557
ング	-8558
ador	-8559
▁pul	-8560
am,	-8561
adas	-8562
▁criminal	-8563
ines,	-8564
less,	-8565
▁destroy	-8566
79	-8567
▁FOR	-8568
bo	-8569
aan	-8570
ства	-8571
▁But,	-8572
▁tables	-8573
ded	-8574
aturing	-8575
▁night,	-8576
▁body.	-8577
rans	-8578
-free	-8579
▁dot	-8580
▁ми	-8581
▁#####	-8582
▁sulf	-8583
▁Stock	-8584
▁this:	-8585
▁agreed	-8586
frac{1}{	-8587
▁thermal	-8588
▁optimize	-8589
▁right.	-8590
▁glob	-8591
amber	-8592
▁Kim	-8593
▁keeps	-8594
▁minimize	-8595
▁registered	-8596
▁동	-8597
▁patterns	-8598
ists,	-8599
▁문	-8600
▁202	-8601
▁crack	-8602
▁wheel	-8603
▁data,	-8604
▁game,	-8605
▁reput	-8606
\n	-8607
中國	-8608
▁tur	-8609
▁regional	-8610
▁possibility	-8611
▁noise	-8612
▁Remember	-8613
▁부	-8614
政府	-8615
bel	-8616
▁وا	-8617
もの	-8618
گر	-8619
▁đị	-8620
isch	-8621
rition	-8622
▁native	-8623
▁ago.	-8624
▁Fig	-8625
▁cities	-8626
zie	-8627
▁था	-8628
▁Tür	-8629
▁kinds	-8630
▁photochemical	-8631
▁extensive	-8632
▁−	-8633
▁су	-8634
▁couldn't	-8635
قت	-8636
olecular	-8637
▁rh	-8638
▁primarily	-8639
amma	-8640
▁Carl	-8641
▁sour	-8642
▁space.	-8643
▁Hor	-8644
cu	-8645
▁(6	-8646
ente	-8647
lywood	-8648
inations	-8649
ère	-8650
iden	-8651
▁vào	-8652
▁candidate	-8653
▁Hom	-8654
▁auf	-8655
▁co-	-8656
▁jug	-8657
▁stretch	-8658
▁Da	-8659
▁Ken	-8660
▁excit	-8661
▁vital	-8662
▁turning	-8663
ads	-8664
▁Angel	-8665
▁policies	-8666
74	-8667
▁prompt	-8668
ur.	-8669
▁Answ	-8670
▁Code	-8671
▁parameter	-8672
▁ос	-8673
▁cir	-8674
▁©	-8675
▁closely	-8676
CD	-8677
▁L'	-8678
▁improving	-8679
ules	-8680
▁causing	-8681
Pro	-8682
▁Price	-8683
مر	-8684
urrent	-8685
zą	-8686
である。	-8687
erver	-8688
▁popul	-8689
▁follows	-8690
▁recorded	-8691
AY	-8692
ため	-8693
▁France	-8694
▁edition	-8695
▁thin	-8696
нд	-8697
род	-8698
▁Kh	-8699
▁Pass	-8700
▁Small	-8701
▁bedroom	-8702
▁grew	-8703
▁adsorption	-8704
riz	-8705
▁yellow	-8706
▁results.	-8707
▁supports	-8708
▁available.	-8709
RU	-8710
िस	-8711
▁ذ	-8712
etch	-8713
▁Help	-8714
▁Dev	-8715
▁engineering	-8716
▁ble	-8717
▁Term	-8718
▁involving	-8719
▁successfully	-8720
▁Cook	-8721
▁suggested	-8722
▁Digital	-8723
▁fantastic	-8724
аль	-8725
GB	-8726
▁community.	-8727
▁System.	-8728
▁opinion	-8729
▁aver	-8730
▁temperatures	-8731
▁intermedi	-8732
91	-8733
▁audio	-8734
exp	-8735
-related	-8736
/4	-8737
+\	-8738
▁boys	-8739
▁theme	-8740
@example.com	-8741
▁미국의	-8742
▁Party	-8743
iều	-8744
mond	-8745
▁clar	-8746
▁climb	-8747
▁conso	-8748
ają	-8749
▁stored	-8750
▁incident	-8751
▁nurs	-8752
▁PLA	-8753
▁function.	-8754
-mail	-8755
▁adopt	-8756
▁Chicago	-8757
▁선수	-8758
▁properties,	-8759
лен	-8760
▁Young	-8761
▁paying	-8762
73	-8763
▁follows:	-8764
ronom	-8765
▁cutting	-8766
▁controlled	-8767
▁conditions.	-8768
▁determining	-8769
rome	-8770
▁behavi	-8771
▁include:	-8772
▁ends	-8773
▁occurs	-8774
▁(1)	-8775
▁Tar	-8776
▁lies	-8777
▁formul	-8778
▁forth	-8779
........	-8780
estyle	-8781
▁taught	-8782
▁Italian	-8783
▁reactants	-8784
ibi	-8785
▁Frid	-8786
anh	-8787
▁fee	-8788
{{	-8789
мп	-8790
noon	-8791
▁Paris	-8792
▁intellect	-8793
-W	-8794
▁ticket	-8795
▁Exam	-8796
▁reasonable	-8797
▁(2)	-8798
hematic	-8799
'n	-8800
▁ye	-8801
▁defe	-8802
▁Saf	-8803
▁adhes	-8804
▁bigger	-8805
▁identity	-8806
js	-8807
▁Pack	-8808
▁discl	-8809
▁Don't	-8810
▁publish	-8811
▁absolute	-8812
igan	-8813
▁realized	-8814
▁tall	-8815
▁Tour	-8816
▁ở	-8817
مال	-8818
▁Penn	-8819
▁change.	-8820
▁commitment	-8821
▁नि	-8822
inin	-8823
▁NO	-8824
▁polynomial	-8825
▁(e	-8826
▁membr	-8827
▁fulf	-8828
▁finds	-8829
▁(10	-8830
▁dur	-8831
▁gap	-8832
▁sole	-8833
ية،	-8834
▁ile	-8835
rer	-8836
com/	-8837
irty	-8838
▁Ref	-8839
▁entered	-8840
▁Sem	-8841
▁upp	-8842
▁Method	-8843
▁imagine	-8844
72	-8845
ographic	-8846
▁approved	-8847
▁0.5	-8848
，但	-8849
▁incredible	-8850
▁boot	-8851
▁themselv	-8852
ật	-8853
oga	-8854
▁1st	-8855
▁compens	-8856
▁receiving	-8857
VD	-8858
then	-8859
▁Copy	-8860
▁convent	-8861
▁K.	-8862
▁afternoon	-8863
▁competitive	-8864
▁0.1	-8865
▁flavor	-8866
▁capable	-8867
▁visitors	-8868
▁OS	-8869
▁Sn	-8870
▁defect	-8871
TH	-8872
x.	-8873
real	-8874
▁later,	-8875
▁Walk	-8876
▁kan	-8877
▁التي	-8878
ận	-8879
▁passing	-8880
وت	-8881
uous	-8882
▁compat	-8883
▁coordin	-8884
01	-8885
▁dip	-8886
eller	-8887
▁self.	-8888
▁emergency	-8889
▁trail	-8890
▁cleaning	-8891
iện	-8892
fter	-8893
BI	-8894
▁Bern	-8895
▁canc	-8896
Re	-8897
ontin	-8898
▁Hard	-8899
▁Volume	-8900
ùng	-8901
i.e.	-8902
▁Der	-8903
▁insight	-8904
▁Chief	-8905
▁page.	-8906
іль	-8907
▁김	-8908
▁Comb	-8909
82	-8910
M.	-8911
▁multiply	-8912
▁"L	-8913
▁readers	-8914
ournament	-8915
ık	-8916
▁name,	-8917
EP	-8918
▁64	-8919
mann	-8920
▁Middle	-8921
）、	-8922
▁AI	-8923
▁spark	-8924
कार	-8925
▁Pen	-8926
(c	-8927
वि	-8928
▁tens	-8929
▁구	-8930
▁Name	-8931
▁hardware	-8932
▁do,	-8933
prene	-8934
imensional	-8935
▁11,	-8936
▁busy	-8937
▁commonly	-8938
▁professionals	-8939
▁clock	-8940
▁environment.	-8941
NO	-8942
▁boat	-8943
▁relation	-8944
يت	-8945
▁Hit	-8946
▁portion	-8947
▁grown	-8948
▁Select	-8949
بان	-8950
▁Op	-8951
▁riv	-8952
▁product.	-8953
▁category	-8954
▁gia	-8955
▁고	-8956
▁EU	-8957
▁cycl	-8958
quest	-8959
▁Foundation	-8960
▁casino	-8961
▁ans	-8962
▁icon	-8963
▁agents	-8964
mod	-8965
ulty	-8966
▁stands	-8967
що	-8968
ة،	-8969
ная	-8970
▁domin	-8971
▁drawn	-8972
ский	-8973
▁narrow	-8974
ore,	-8975
▁neither	-8976
uing	-8977
▁volt	-8978
▁linked	-8979
ूप	-8980
▁fu	-8981
▁раз	-8982
▁الص	-8983
▁Turn	-8984
▁align	-8985
▁acknow	-8986
▁guests	-8987
/h	-8988
ूर्	-8989
▁raw	-8990
▁Arm	-8991
▁Roman	-8992
▁những	-8993
▁stopped	-8994
▁Spec	-8995
▁margin	-8996
▁dei	-8997
át	-8998
▁Ga	-8999
▁ordered	-9000
▁revealed	-9001
▁discussed	-9002
▁negot	-9003
▁Place	-9004
▁Kn	-9005
▁empty	-9006
▁songs	-9007
▁today,	-9008
▁accessible	-9009
▁tap	-9010
▁attached	-9011
▁referred	-9012
м,	-9013
▁Canadian	-9014
▁Ray	-9015
%,	-9016
400	-9017
name.	-9018
d,	-9019
▁“C	-9020
▁пер	-9021
ator,	-9022
▁blend	-9023
▁Fair	-9024
▁dinner	-9025
▁catalytic	-9026
▁hyper	-9027
▁domestic	-9028
▁conducted	-9029
▁थ	-9030
▁해	-9031
son,	-9032
▁criter	-9033
▁ourselves	-9034
▁Vi	-9035
▁dies	-9036
hentic	-9037
▁originally	-9038
ối	-9039
▁ingredients	-9040
▁sistem	-9041
▁fing	-9042
rieved	-9043
▁colon	-9044
ile.	-9045
▁apples	-9046
▁moments	-9047
▁suc	-9048
open	-9049
▁newsp	-9050
redit	-9051
▁oxidation	-9052
▁fro	-9053
ghan	-9054
▁algebra	-9055
irmed	-9056
▁loop	-9057
MA	-9058
");	-9059
▁cam	-9060
ách	-9061
▁Aff	-9062
▁Tri	-9063
▁Prem	-9064
▁exposure	-9065
▁needs.	-9066
▁Standard	-9067
▁ما	-9068
▁Ко	-9069
▁honor	-9070
▁Adam	-9071
las	-9072
ski	-9073
way.	-9074
▁meth	-9075
▁urban	-9076
▁necessarily	-9077
astern	-9078
وع	-9079
izer	-9080
FORMAT	-9081
▁athlet	-9082
owing	-9083
▁Exec	-9084
▁creation	-9085
があ	-9086
▁cooper	-9087
▁warn	-9088
▁room.	-9089
ले	-9090
▁4:	-9091
▁enthus	-9092
▁stronger	-9093
ảng	-9094
▁स्थ	-9095
▁Украї	-9096
▁tack	-9097
▁rooms	-9098
▁Little	-9099
▁9,	-9100
▁Tay	-9101
▁wouldn't	-9102
▁मु	-9103
leri	-9104
▁plain	-9105
▁Python	-9106
▁accomp	-9107
▁anticip	-9108
friend	-9109
▁Android	-9110
ển	-9111
▁HD	-9112
▁Text	-9113
anz	-9114
▁Boy	-9115
▁Mic	-9116
2:	-9117
▁enab	-9118
81	-9119
▁NC	-9120
▁expon	-9121
▁Library	-9122
▁participants	-9123
▁Box	-9124
▁Such	-9125
▁Bul	-9126
▁"G	-9127
▁point.	-9128
T.	-9129
▁west	-9130
▁Daily	-9131
لف	-9132
atre	-9133
▁Span	-9134
▁"s	-9135
icians	-9136
äl	-9137
्री	-9138
▁Australian	-9139
lands	-9140
▁visible	-9141
▁applications.	-9142
lets	-9143
phi	-9144
▁Line	-9145
▁biological	-9146
▁(as	-9147
▁argu	-9148
▁vacc	-9149
▁arrived	-9150
▁rub	-9151
▁Space	-9152
▁\d	-9153
SA	-9154
▁wet	-9155
▁insights	-9156
oken	-9157
▁coupl	-9158
年、	-9159
▁FR	-9160
би	-9161
▁careful	-9162
ної	-9163
ского	-9164
▁properly	-9165
▁candidates	-9166
rek	-9167
▁Produ	-9168
▁concerned	-9169
des	-9170
▁قر	-9171
▁12,	-9172
▁deeper	-9173
▁dop	-9174
▁enforce	-9175
▁moder	-9176
▁ligand	-9177
ju	-9178
▁Е	-9179
ori	-9180
▁Ast	-9181
iques	-9182
▁“F	-9183
gers	-9184
▁orang	-9185
lymp	-9186
▁tent	-9187
▁Andrew	-9188
▁reson	-9189
にな	-9190
▁dynamic	-9191
▁neutral	-9192
▁accepted	-9193
▁-1	-9194
▁noticed	-9195
ент	-9196
▁Qual	-9197
▁“N	-9198
▁vs.	-9199
▁battery	-9200
ad,	-9201
pack	-9202
▁aer	-9203
▁orb	-9204
▁Johnson	-9205
▁bonds	-9206
▁±	-9207
▁бо	-9208
▁Mid	-9209
▁baş	-9210
▁cock	-9211
▁nob	-9212
▁topics	-9213
عل	-9214
anche	-9215
▁mob	-9216
▁dân	-9217
more,	-9218
▁adop	-9219
▁level.	-9220
imm	-9221
lag	-9222
idth	-9223
elines	-9224
▁ś	-9225
人口	-9226
▁tub	-9227
нський	-9228
▁parking	-9229
!!!	-9230
ally.	-9231
▁theorem	-9232
gage	-9233
win	-9234
▁hung	-9235
ployment	-9236
▁мі	-9237
▁Hig	-9238
▁بعد	-9239
▁split	-9240
▁exists	-9241
71	-9242
▁courses	-9243
ây	-9244
prise	-9245
l,	-9246
iga	-9247
▁dell'	-9248
▁landscape	-9249
▁commission	-9250
▁Circ	-9251
▁Pract	-9252
▁produc	-9253
▁rend	-9254
▁engage	-9255
▁독	-9256
athe	-9257
▁perfectly	-9258
▁fer	-9259
▁Cross	-9260
ircraft	-9261
▁Bru	-9262
▁arrangement	-9263
▁(i.e.	-9264
▁ya	-9265
▁học	-9266
▁गया	-9267
aining	-9268
▁Ident	-9269
▁to,	-9270
▁Quốc	-9271
▁compounds	-9272
▁관	-9273
ismo	-9274
▁systems.	-9275
▁soil	-9276
▁capture	-9277
roph	-9278
▁spac	-9279
▁covers	-9280
▁approaches	-9281
▁Record	-9282
▁challenging	-9283
▁Girl	-9284
▁uncertain	-9285
ité	-9286
▁thu	-9287
▁Joseph	-9288
▁losing	-9289
▁authors	-9290
▁book,	-9291
▁forever	-9292
▁pleas	-9293
ба	-9294
وج	-9295
▁Stan	-9296
▁Never	-9297
ipt	-9298
▁$f	-9299
ers:	-9300
rolog	-9301
aching	-9302
▁recognized	-9303
next	-9304
▁SH	-9305
▁unable	-9306
[i	-9307
▁x^2	-9308
▁samples	-9309
▁concepts	-9310
ely,	-9311
▁quy	-9312
luded	-9313
▁wouldn’t	-9314
▁상	-9315
▁oleh	-9316
▁too,	-9317
▁determin	-9318
▁purchased	-9319
▁solution.	-9320
PA	-9321
ジャ	-9322
▁Chang	-9323
▁rational	-9324
▁pip	-9325
ved.	-9326
▁Quant	-9327
▁Similar	-9328
▁ont	-9329
▁acts	-9330
▁decad	-9331
▁line.	-9332
▁exceed	-9333
▁issued	-9334
▁Gar	-9335
sem	-9336
▁gene	-9337
▁case.	-9338
▁assistance	-9339
▁program.	-9340
oz	-9341
ły	-9342
rics	-9343
54	-9344
▁Mas	-9345
▁somewhere	-9346
isa	-9347
▁Night	-9348
▁Environment	-9349
lastname	-9350
▁도	-9351
P.	-9352
tex	-9353
Zbl 	-9354
▁history.	-9355
▁consumers	-9356
▁Nob	-9357
▁Analy	-9358
········	-9359
した。	-9360
صل	-9361
lay	-9362
▁Ng	-9363
▁jed	-9364
▁일본	-9365
▁influenced	-9366
▁Field	-9367
-K	-9368
▁(for	-9369
name.lastname	-9370
▁market.	-9371
▁Hu	-9372
▁från	-9373
@example.org	-9374
▁meal	-9375
▁Republican	-9376
69	-9377
▁seed	-9378
elength	-9379
▁installed	-9380
بي	-9381
▁buff	-9382
▁Based	-9383
▁Bon	-9384
▁Writ	-9385
iana	-9386
▁hole	-9387
▁producing	-9388
▁Page	-9389
▁concert	-9390
▁painting	-9391
▁constantly	-9392
▁Scot	-9393
▁dump	-9394
▁elig	-9395
▁for.	-9396
(b	-9397
▁CN	-9398
/S	-9399
▁bear	-9400
▁somewhat	-9401
▁with.	-9402
▁Univers	-9403
▁hell	-9404
▁است.	-9405
▁disappoint	-9406
▁implementation	-9407
▁هذ	-9408
▁tum	-9409
=1	-9410
ary.	-9411
▁fairly	-9412
▁preserv	-9413
roduction	-9414
-V	-9415
▁Yet	-9416
ही	-9417
▁2nd	-9418
▁Dar	-9419
▁re-	-9420
aneous	-9421
abel	-9422
rape	-9423
▁});	-9424
▁3x	-9425
▁positions	-9426
▁technologies	-9427
رک	-9428
uts	-9429
▁mand	-9430
▁resour	-9431
▁problem,	-9432
outs	-9433
writ	-9434
▁scored	-9435
▁things.	-9436
angan	-9437
▁tested	-9438
▁Children	-9439
▁URL	-9440
▁Valley	-9441
▁suggests	-9442
abeth	-9443
▁Africa	-9444
▁sebagai	-9445
▁Bow	-9446
▁sty	-9447
▁для	-9448
ce.	-9449
▁jun	-9450
▁Division	-9451
▁reaction,	-9452
s,"	-9453
стро	-9454
▁Cas	-9455
▁before.	-9456
▁natur	-9457
▁moves	-9458
zes	-9459
▁Mov	-9460
▁sick	-9461
また	-9462
ERS	-9463
▁toxic	-9464
▁driven	-9465
ikip	-9466
pir	-9467
▁entr	-9468
▁mainly	-9469
-12	-9470
▁Brad	-9471
ivity,	-9472
▁integrated	-9473
ه،	-9474
▁abuse	-9475
ivity.	-9476
▁fluid	-9477
▁plate	-9478
▁Son	-9479
▁Fun	-9480
▁bare	-9481
ances.	-9482
▁Having	-9483
▁remote	-9484
فا	-9485
▁Mexic	-9486
▁14.	-9487
▁warrant	-9488
▁thorough	-9489
];	-9490
▁Hon	-9491
62	-9492
▁같	-9493
▁وأ	-9494
▁Java	-9495
ты	-9496
▁Ok	-9497
▁“P	-9498
▁кон	-9499
▁dealing	-9500
ード	-9501
bro	-9502
html	-9503
▁15,	-9504
▁injury	-9505
▁picking	-9506
▁proteins	-9507
▁discovery	-9508
▁34	-9509
war	-9510
▁роз	-9511
’.	-9512
▁bathroom	-9513
▁season,	-9514
▁gem	-9515
▁1999	-9516
▁collected	-9517
eries	-9518
▁Mah	-9519
▁orbit	-9520
▁messages	-9521
▁off.	-9522
▁kne	-9523
▁Live	-9524
▁Common	-9525
▁vend	-9526
pons	-9527
▁ram	-9528
▁Member	-9529
▁MO	-9530
▁Return	-9531
▁good.	-9532
DS	-9533
apat	-9534
aron	-9535
いて	-9536
rey	-9537
▁ве	-9538
▁more,	-9539
▁gentle	-9540
▁occasion	-9541
ções	-9542
appy	-9543
▁sustainable	-9544
▁dism	-9545
▁remained	-9546
▁yesterday	-9547
द्ध	-9548
cket	-9549
T,	-9550
▁route	-9551
rible	-9552
▁Connect	-9553
▁trading	-9554
▁accounts	-9555
▁simulation	-9556
▁Friday,	-9557
▁ensuring	-9558
र्म	-9559
▁dess	-9560
▁Bible	-9561
▁Surface	-9562
▁conditions,	-9563
}(	-9564
▁stead	-9565
▁suspect	-9566
▁DO	-9567
▁Royal	-9568
▁secur	-9569
▁breakfast	-9570
ins,	-9571
▁sampl	-9572
sect	-9573
▁butter	-9574
▁monitoring	-9575
▁constraint	-9576
▁Lee	-9577
▁여	-9578
▁illeg	-9579
▁breath	-9580
▁tomorrow	-9581
▁together,	-9582
ungen	-9583
ından	-9584
▁ot	-9585
▁Greek	-9586
▁Friend	-9587
ası	-9588
▁20,	-9589
lements	-9590
▁industry.	-9591
CE	-9592
Read	-9593
orne	-9594
oven	-9595
▁submit	-9596
wart	-9597
angular	-9598
▁millions	-9599
▁Li	-9600
▁absorb	-9601
この	-9602
▁Ra	-9603
▁Kat	-9604
▁outs	-9605
▁rear	-9606
▁products,	-9607
owa	-9608
▁manip	-9609
▁affili	-9610
она	-9611
▁classroom	-9612
ake,	-9613
idade	-9614
ву	-9615
▁recognize	-9616
ाय	-9617
▁magic	-9618
▁dollars	-9619
ake.	-9620
▁manufacturing	-9621
▁Bes	-9622
▁structural	-9623
▁coefficient	-9624
▁방	-9625
anya	-9626
▁state.	-9627
▁walked	-9628
▁therapy	-9629
nel	-9630
▁Ess	-9631
utt	-9632
▁arr	-9633
▁Film	-9634
▁upcoming	-9635
▁healthcare	-9636
öl	-9637
▁Bush	-9638
▁pulled	-9639
▁تا	-9640
-step	-9641
▁1970	-9642
▁Europ	-9643
▁activation	-9644
in'	-9645
▁CA	-9646
▁13.	-9647
▁लिए	-9648
$$.	-9649
▁sou	-9650
ér	-9651
ां	-9652
ibli	-9653
▁Gro	-9654
▁extend	-9655
oj	-9656
▁shell	-9657
▁Braz	-9658
rage	-9659
erman	-9660
iones	-9661
▁Section	-9662
한다.	-9663
▁everyday	-9664
ire,	-9665
ラン	-9666
kins	-9667
▁stores	-9668
قل	-9669
▁bless	-9670
ref	-9671
▁libr	-9672
uw	-9673
▁studio	-9674
ines.	-9675
▁CO2	-9676
▁dollar	-9677
▁memor	-9678
▁featured	-9679
tes	-9680
▁hook	-9681
▁node	-9682
▁polym	-9683
aken	-9684
▁upload	-9685
▁Communic	-9686
▁Lind	-9687
▁relief	-9688
▁extension	-9689
گی	-9690
▁15.	-9691
▁Sup	-9692
s;	-9693
で、	-9694
▁facing	-9695
▁performing	-9696
ilon	-9697
ology.	-9698
▁Chapter	-9699
▁benefic	-9700
▁exhibit	-9701
며,	-9702
▁55	-9703
▁flexible	-9704
▁sq	-9705
'(x)	-9706
That	-9707
▁tiny	-9708
▁(with	-9709
▁money.	-9710
um.	-9711
▁overw	-9712
▁pp.	-9713
▁gluc	-9714
string	-9715
▁strict	-9716
▁contribution	-9717
I.	-9718
▁auto	-9719
B.	-9720
ATION	-9721
▁\cdot	-9722
▁fuck	-9723
▁radical	-9724
▁repeated	-9725
▁Sher	-9726
▁right,	-9727
ایی	-9728
ium,	-9729
▁tet	-9730
▁family,	-9731
▁adventure	-9732
▁نظ	-9733
▁fib	-9734
▁chocolate	-9735
etry	-9736
▁Optim	-9737
▁Ire	-9738
▁planned	-9739
+1	-9740
▁gear	-9741
itable	-9742
▁temperature,	-9743
▁sup	-9744
▁says,	-9745
inking	-9746
I)	-9747
-off	-9748
hand	-9749
▁encoun	-9750
lementary	-9751
▁chloride	-9752
▁Olymp	-9753
▁earned	-9754
▁indicate	-9755
▁comparison	-9756
▁Sym	-9757
▁Fort	-9758
▁minimal	-9759
▁appearance	-9760
▁better.	-9761
▁Hospital	-9762
▁jack	-9763
▁writer	-9764
▁vertical	-9765
chant	-9766
▁trav	-9767
%)	-9768
ator.	-9769
▁spoke	-9770
▁understood	-9771
▁sensitive	-9772
▁assessment	-9773
▁Santa	-9774
▁frequently	-9775
▁성	-9776
▁Hope	-9777
▁$n	-9778
▁Polit	-9779
▁organis	-9780
aux	-9781
▁immediate	-9782
▁east	-9783
▁flower	-9784
▁missed	-9785
کن	-9786
▁Perhaps	-9787
▁cel	-9788
▁dit	-9789
▁Eliz	-9790
▁occurred	-9791
▁Professor	-9792
imp	-9793
▁Model	-9794
▁field.	-9795
▁respectively.	-9796
▁normally	-9797
▁nanoparticles	-9798
▁websites	-9799
’,	-9800
L,	-9801
ких	-9802
▁grade	-9803
mathcal{	-9804
P,	-9805
▁mine	-9806
▁guarantee	-9807
主要	-9808
elijk	-9809
▁stood	-9810
user	-9811
ogether	-9812
ances,	-9813
▁phosph	-9814
▁locations	-9815
»,	-9816
▁pin	-9817
▁letters	-9818
شر	-9819
▁reject	-9820
я,	-9821
▁Put	-9822
▁amounts	-9823
sa	-9824
ancer	-9825
▁Account	-9826
▁speaking	-9827
▁advertising	-9828
▁PS	-9829
▁appeal	-9830
▁symptoms	-9831
ethyl	-9832
/3)	-9833
▁250	-9834
▁cyc	-9835
خر	-9836
▁dust	-9837
}$.	-9838
▁Liber	-9839
▁16.	-9840
800	-9841
▁『	-9842
▁soph	-9843
▁Labor	-9844
▁stone	-9845
▁Lew	-9846
▁Example	-9847
▁aus	-9848
you	-9849
▁Fred	-9850
▁Brook	-9851
▁children.	-9852
▁back,	-9853
▁manual	-9854
apa	-9855
life	-9856
▁volum	-9857
ocation	-9858
pace	-9859
▁transf	-9860
▁licens	-9861
▁metabol	-9862
▁marriage	-9863
▁milk	-9864
▁Sat	-9865
/C	-9866
}}$	-9867
▁Ye	-9868
▁corn	-9869
▁manner	-9870
▁#E	-9871
bles	-9872
▁Run	-9873
XX	-9874
▁echo	-9875
▁String	-9876
▁protected	-9877
Go	-9878
ça	-9879
^n	-9880
▁Muslim	-9881
▁Rod	-9882
▁Cond	-9883
▁Prom	-9884
▁approval	-9885
▁tại	-9886
▁rental	-9887
▁haven’t	-9888
▁wavelength	-9889
aha	-9890
▁1960	-9891
oto	-9892
である	-9893
▁crypt	-9894
▁choices	-9895
▁divided	-9896
iral	-9897
▁team.	-9898
▁pitch	-9899
▁business,	-9900
▁Should	-9901
▁basically	-9902
▁characteristic	-9903
رات	-9904
▁SU	-9905
▁193	-9906
▁vulner	-9907
▁Article	-9908
▁scheduled	-9909
(p	-9910
ifier	-9911
हर	-9912
ime.	-9913
▁Room	-9914
▁chose	-9915
LY	-9916
▁attribut	-9917
àn	-9918
nej	-9919
كان	-9920
▁menu	-9921
agu	-9922
empl	-9923
▁symm	-9924
▁carb	-9925
▁faces	-9926
日，	-9927
нии	-9928
▁Sir	-9929
▁calend	-9930
▁directed	-9931
▁bomb	-9932
▁down,	-9933
▁finite	-9934
▁Academy	-9935
▁existence	-9936
arı	-9937
▁e-mail	-9938
दी	-9939
▁films	-9940
FC	-9941
iders	-9942
▁shares	-9943
▁expansion	-9944
ioni	-9945
▁winner	-9946
▁jew	-9947
▁calculations	-9948
600	-9949
▁जो	-9950
-200	-9951
▁Ult	-9952
▁Event	-9953
▁Local	-9954
▁pound	-9955
▁acting	-9956
▁limits	-9957
▁Indones	-9958
कर	-9959
▁अप	-9960
▁champ	-9961
▁nu	-9962
▁solub	-9963
▁accuracy	-9964
▁structure,	-9965
ulous	-9966
▁Jones	-9967
اً	-9968
▁Bol	-9969
▁Choose	-9970
▁biom	-9971
▁Jane	-9972
ressed	-9973
▁availability	-9974
▁slowly	-9975
▁partners	-9976
ść	-9977
에는	-9978
▁ec	-9979
utch	-9980
▁paramet	-9981
▁featuring	-9982
Us	-9983
▁Spirit	-9984
▁marked	-9985
53	-9986
ès	-9987
▁merely	-9988
▁retire	-9989
▁unex	-9990
ydr	-9991
▁l’	-9992
▁meat	-9993
▁month.	-9994
▁saving	-9995
مة	-9996
▁0;	-9997
▁I.	-9998
іч	-9999
▁За	-10000
▁There's	-10001
ång	-10002
▁SO	-10003
52	-10004
istical	-10005
▁cha	-10006
▁ongoing	-10007
▁Southern	-10008
▁edit	-10009
▁Video	-10010
▁recept	-10011
▁interests	-10012
▁perspective	-10013
61	-10014
▁И	-10015
▁दे	-10016
oses	-10017
▁museum	-10018
▁particle	-10019
▁đó	-10020
ife,	-10021
▁cm.	-10022
政治	-10023
New	-10024
▁mask	-10025
зна	-10026
▁contemporary	-10027
▁Sus	-10028
▁Pacific	-10029
िर	-10030
ilic	-10031
▁analyze	-10032
mo	-10033
▁genetic	-10034
▁transformation	-10035
зу	-10036
▁menj	-10037
▁visiting	-10038
▁COVID	-10039
▁Pow	-10040
▁rate.	-10041
quir	-10042
▁1998	-10043
▁achie	-10044
▁Comple	-10045
▁Arts	-10046
▁result,	-10047
▁teeth	-10048
▁figures	-10049
▁signature	-10050
ben	-10051
12.	-10052
mal	-10053
▁PLAIN	-10054
▁خود	-10055
▁przy	-10056
▁convenient	-10057
ăn	-10058
▁dimension	-10059
िन	-10060
▁unus	-10061
▁dialog	-10062
▁Low	-10063
▁2012,	-10064
▁owned	-10065
▁Title	-10066
▁Process	-10067
Al	-10068
м.	-10069
rical	-10070
space	-10071
▁Priv	-10072
▁mile	-10073
，而	-10074
▁37	-10075
erring	-10076
thing.	-10077
oral	-10078
▁1950	-10079
▁Cert	-10080
▁replaced	-10081
▁rail	-10082
▁Alexander	-10083
'm	-10084
MC	-10085
}}{	-10086
▁reliable	-10087
▁Cult	-10088
▁null	-10089
▁experience,	-10090
▁Trust	-10091
▁iPhone	-10092
▁compact	-10093
▁company.	-10094
▁problems.	-10095
onder	-10096
ствен	-10097
▁inequ	-10098
\left	-10099
▁Farm	-10100
ró	-10101
ressive	-10102
▁lovely	-10103
iş	-10104
▁her,	-10105
▁aren't	-10106
▁wisdom	-10107
acent	-10108
▁Kit	-10109
▁by:	-10110
▁are:	-10111
▁room,	-10112
▁breaking	-10113
ATE	-10114
▁IV	-10115
▁가수	-10116
▁regions	-10117
▁Jam	-10118
▁flood	-10119
▁history,	-10120
▁integration	-10121
年：	-10122
▁branch	-10123
▁recall	-10124
    	-10125
▁Ron	-10126
▁đến	-10127
▁PLAINFORMAT	-10128
LC	-10129
▁ocean	-10130
▁tamb	-10131
aret	-10132
▁Sel	-10133
▁it!	-10134
▁loves	-10135
th.	-10136
ті	-10137
neg	-10138
▁flash	-10139
▁unw	-10140
▁basketball	-10141
▁end,	-10142
▁fighting	-10143
▁introduce	-10144
L.	-10145
▁về	-10146
ime,	-10147
сле	-10148
}\right)	-10149
▁quadr	-10150
▁haven't	-10151
▁Cab	-10152
▁what’s	-10153
▁tea	-10154
▁Moreover,	-10155
त्त	-10156
▁judge	-10157
▁CR	-10158
▁Join	-10159
▁lifet	-10160
▁deposit	-10161
T)	-10162
rypt	-10163
▁performance.	-10164
▁《	-10165
▁months.	-10166
▁Determ	-10167
▁design,	-10168
▁Need	-10169
▁said:	-10170
▁trained	-10171
▁HCl	-10172
▁scr	-10173
▁sky	-10174
essage	-10175
▁services,	-10176
P)	-10177
▁Nh	-10178
flow	-10179
▁:evidence	-10180
▁“L	-10181
ется	-10182
ời	-10183
beta	-10184
▁sid	-10185
▁proven	-10186
▁differential	-10187
▁largely	-10188
▁adds	-10189
▁conversion	-10190
▁Ash	-10191
▁esp	-10192
▁fees	-10193
▁Guide	-10194
▁recognition	-10195
▁jak	-10196
▁adults	-10197
fo	-10198
▁الخ	-10199
z.	-10200
▁simult	-10201
▁aircraft	-10202
ша	-10203
第一	-10204
▁Ur	-10205
▁intent	-10206
▁legend	-10207
▁Centre	-10208
ảo	-10209
rav	-10210
▁Pers	-10211
ol.	-10212
▁personality	-10213
в.	-10214
idents	-10215
▁place,	-10216
▁Spanish	-10217
▁extent	-10218
▁housing	-10219
▁16,	-10220
▁công	-10221
▁journe	-10222
▁searching	-10223
▁golf	-10224
▁"c	-10225
▁are,	-10226
▁nod	-10227
▁analog	-10228
▁muscle	-10229
▁yap	-10230
ureau	-10231
▁choosing	-10232
▁شهر	-10233
▁reveal	-10234
▁indicates	-10235
PC	-10236
▁thing.	-10237
▁updates	-10238
Name	-10239
ियों	-10240
▁más	-10241
▁knowled	-10242
ôn	-10243
rell	-10244
▁imper	-10245
/t	-10246
id.	-10247
▁Tag	-10248
▁we've	-10249
▁believes	-10250
▁regulation	-10251
dh	-10252
iva	-10253
вля	-10254
▁Magn	-10255
▁list.	-10256
▁Let’s	-10257
▁asset	-10258
▁brill	-10259
▁Sports	-10260
ls	-10261
▁dish	-10262
ificial	-10263
▁cooking	-10264
▁episode	-10265
String	-10266
▁dropped	-10267
▁65	-10268
▁A,	-10269
▁وج	-10270
▁eine	-10271
▁eleg	-10272
▁DC	-10273
▁haz	-10274
▁extreme	-10275
▁Ren	-10276
▁contro	-10277
TA	-10278
▁bio	-10279
align	-10280
▁movies	-10281
▁premium	-10282
▁작	-10283
▁Coast	-10284
▁systems,	-10285
▁crop	-10286
▁yard	-10287
▁Sometimes	-10288
M,	-10289
aman	-10290
▁solo	-10291
▁improvement	-10292
anny	-10293
obs	-10294
▁Without	-10295
सी	-10296
▁lens	-10297
▁Source	-10298
▁hoping	-10299
▁ster	-10300
▁Thursday,	-10301
▁radiation	-10302
▁blind	-10303
▁dangerous	-10304
▁mph	-10305
ization,	-10306
ого	-10307
ية.	-10308
▁14,	-10309
▁increasingly	-10310
▁done.	-10311
▁applying	-10312
weet	-10313
▁itself.	-10314
▁birthday	-10315
▁virus	-10316
andem	-10317
▁exclusive	-10318
üm	-10319
▁0.00	-10320
▁]	-10321
▁신	-10322
▁über	-10323
ễn	-10324
▁що	-10325
▁sự	-10326
▁(d.	-10327
▁Рос	-10328
▁Share	-10329
▁airport	-10330
▁flour	-10331
▁conscious	-10332
▁mm	-10333
▁Abstract	-10334
";	-10335
▁ث	-10336
▁slot	-10337
سا	-10338
▁CB	-10339
▁만	-10340
ées	-10341
▁distingu	-10342
▁studying	-10343
sub	-10344
-dimensional	-10345
▁moist	-10346
▁investigation	-10347
▁ध	-10348
▁emission	-10349
_m	-10350
大学	-10351
▁cerem	-10352
▁Ö	-10353
apor	-10354
valu	-10355
▁zer	-10356
▁county	-10357
▁می‌شود	-10358
▁markets	-10359
ції	-10360
▁ti	-10361
▁dual	-10362
），	-10363
ulating	-10364
▁("	-10365
oman	-10366
▁tiế	-10367
-or	-10368
ings,	-10369
quality	-10370
case	-10371
▁alla	-10372
ed:	-10373
rod	-10374
▁hem	-10375
-com	-10376
▁molar	-10377
▁Compan	-10378
▁EX	-10379
▁wur	-10380
owntown	-10381
+1)	-10382
▁counsel	-10383
eri	-10384
are,	-10385
58	-10386
I,	-10387
index	-10388
▁tháng	-10389
e)	-10390
s...	-10391
▁Cit	-10392
▁classical	-10393
▁Ка	-10394
with	-10395
▁Senior	-10396
▁han	-10397
▁mathematical	-10398
▁विश	-10399
▁\times	-10400
يات	-10401
▁replacement	-10402
59	-10403
لس	-10404
ेत्र	-10405
▁certific	-10406
▁18,	-10407
▁hurt	-10408
ート	-10409
▁sua	-10410
▁Nick	-10411
▁informed	-10412
while,	-10413
▁sphere	-10414
▁awesome	-10415
▁lights	-10416
▁Henry	-10417
▁(0.	-10418
c,	-10419
ेल	-10420
ська	-10421
▁glad	-10422
▁introduction	-10423
▁Mountain	-10424
▁graduate	-10425
▁Senate	-10426
▁capabilities	-10427
▁horse	-10428
▁authority	-10429
▁때	-10430
▁stuck	-10431
▁copyright	-10432
▁ak	-10433
bered	-10434
▁forgot	-10435
crib	-10436
▁Blog	-10437
▁help.	-10438
▁refers	-10439
▁happening	-10440
▁permanent	-10441
▁crus	-10442
▁drag	-10443
osa	-10444
eden	-10445
▁fewer	-10446
▁Copyright	-10447
——	-10448
▁Kenn	-10449
▁hate	-10450
▁blank	-10451
▁Material	-10452
▁Retrieved	-10453
merce	-10454
▁Chair	-10455
▁38	-10456
▁tech	-10457
▁representation	-10458
▁الذ	-10459
▁goods	-10460
▁programming	-10461
▁Bell	-10462
▁managing	-10463
▁first,	-10464
▁vehicles	-10465
▁project.	-10466
▁superior	-10467
▁Elizabeth	-10468
▁13,	-10469
▁Tool	-10470
▁operate	-10471
▁confirmed	-10472
▁corpor	-10473
تم	-10474
中央	-10475
▁rum	-10476
$$,	-10477
ina.	-10478
▁describes	-10479
▁directory	-10480
▁Jenn	-10481
lich	-10482
▁bik	-10483
▁installation	-10484
rep	-10485
▁lu	-10486
▁so.	-10487
▁Afghan	-10488
▁segment	-10489
▁تم	-10490
▁jur	-10491
▁Boston	-10492
▁bodies	-10493
▁Vari	-10494
▁sharp	-10495
▁overwhel	-10496
رق	-10497
▁()	-10498
▁Hotel	-10499
▁pace	-10500
▁workshop	-10501
▁question.	-10502
▁“You	-10503
▁amino	-10504
적인	-10505
сте	-10506
▁sont	-10507
▁foundation	-10508
▁instructions	-10509
▁principle	-10510
EX	-10511
s.com	-10512
▁रूप	-10513
line,	-10514
▁Het	-10515
▁transp	-10516
▁broadcast	-10517
▁contained	-10518
▁Linux	-10519
▁attacks	-10520
▁exposed	-10521
اده	-10522
▁क्ष	-10523
ading	-10524
▁\right	-10525
ization.	-10526
▁lifestyle	-10527
고,	-10528
acher	-10529
▁Here’s	-10530
▁Problem	-10531
otes	-10532
▁Iran	-10533
▁surve	-10534
▁tonight	-10535
ete	-10536
ans,	-10537
▁Vers	-10538
▁studied	-10539
▁42	-10540
▁conce	-10541
▁sheet	-10542
▁windows	-10543
kes	-10544
low	-10545
▁Anth	-10546
▁Corn	-10547
▁accomplish	-10548
ctu	-10549
iał	-10550
-out	-10551
rec	-10552
▁degrad	-10553
▁Financial	-10554
y:	-10555
Ind	-10556
▁Dam	-10557
▁Anton	-10558
▁authentic	-10559
▁Case	-10560
▁house.	-10561
▁Catholic	-10562
▁Saturday,	-10563
▁cyl	-10564
▁earli	-10565
▁й	-10566
▁tu	-10567
land.	-10568
▁we’ll	-10569
▁dynamics	-10570
▁SS	-10571
اص	-10572
▁(U	-10573
▁tissue	-10574
▁Personal	-10575
▁Ball	-10576
▁doors	-10577
▁risks	-10578
▁Provide	-10579
ры	-10580
▁Jewish	-10581
▁Mit	-10582
ailed	-10583
▁initially	-10584
nik	-10585
vas	-10586
▁apps	-10587
^2)	-10588
inar	-10589
▁accord	-10590
▁chicken	-10591
▁Mrs.	-10592
▁(inc	-10593
ंड	-10594
wered	-10595
▁prev	-10596
▁Effect	-10597
▁state,	-10598
▁statements	-10599
xx	-10600
▁но	-10601
гу	-10602
▁watched	-10603
▁talked	-10604
▁strongly	-10605
هد	-10606
agen	-10607
ici	-10608
uge	-10609
▁Imp	-10610
▁parte	-10611
▁Corpor	-10612
▁membership	-10613
sigma	-10614
_{i	-10615
▁computational	-10616
▁“the	-10617
▁अध	-10618
▁tickets	-10619
Qu	-10620
àng	-10621
▁Jean	-10622
▁lecture	-10623
▁surprise	-10624
▁underlying	-10625
▁Assist	-10626
▁Modern	-10627
▁entreprene	-10628
▁bike	-10629
ライ	-10630
ieg	-10631
▁600	-10632
▁struggle	-10633
▁listening	-10634
▁theoretical	-10635
▁Hal	-10636
▁book.	-10637
ätt	-10638
▁Han	-10639
▁Princ	-10640
▁Ask	-10641
▁CON	-10642
▁side.	-10643
▁regularly	-10644
َّ	-10645
▁Monday,	-10646
plan	-10647
▁Rights	-10648
ाग	-10649
ln("	-10650
▁nil	-10651
▁flav	-10652
▁bahasa	-10653
▁presentation	-10654
-J	-10655
▁fest	-10656
arest	-10657
▁2012.	-10658
▁attent	-10659
▁nearby	-10660
▁surprised	-10661
wer	-10662
▁Eth	-10663
▁designs	-10664
adel	-10665
▁whis	-10666
▁crime	-10667
▁dispos	-10668
▁shooting	-10669
▁own.	-10670
▁eigen	-10671
▁export	-10672
▁configuration	-10673
▁800	-10674
▁mind.	-10675
▁Angeles	-10676
▁debut	-10677
▁Being	-10678
▁institutions	-10679
▁manufacturer	-10680
▁Among	-10681
▁arbit	-10682
▁younger	-10683
ivo	-10684
▁zw	-10685
oted	-10686
▁Very	-10687
▁Today,	-10688
▁geb	-10689
▁Mu	-10690
可以	-10691
aven	-10692
▁others,	-10693
▁molecu	-10694
OV	-10695
мер	-10696
▁oder	-10697
▁reverse	-10698
▁explicit	-10699
▁Festival	-10700
▁expertise	-10701
ís	-10702
▁provider	-10703
，在	-10704
▁SC	-10705
▁(a)	-10706
▁Asia	-10707
▁newly	-10708
▁victory	-10709
▁forecast	-10710
▁flexibility	-10711
ESS	-10712
▁Systems	-10713
▁scholars	-10714
för	-10715
▁Sud	-10716
▁kar	-10717
」と	-10718
ári	-10719
кла	-10720
▁iter	-10721
▁children,	-10722
▁cro	-10723
▁above,	-10724
(aq)	-10725
▁quân	-10726
▁recording	-10727
▁And,	-10728
▁(17	-10729
▁30,	-10730
▁loud	-10731
▁tasks	-10732
▁recover	-10733
▁bij	-10734
▁eld	-10735
▁folks	-10736
▁binary	-10737
▁recycl	-10738
共和	-10739
▁Vill	-10740
▁cong	-10741
▁lett	-10742
▁2011,	-10743
▁Germany	-10744
▁Dog	-10745
▁afra	-10746
▁أو	-10747
▁او	-10748
▁Level	-10749
▁things,	-10750
▁roz	-10751
ually,	-10752
▁heads	-10753
▁arrive	-10754
▁beneath	-10755
ruption	-10756
▁errors	-10757
▁carrying	-10758
éc	-10759
grade	-10760
▁humans	-10761
▁combine	-10762
▁committee	-10763
(x,	-10764
ay.	-10765
▁دی	-10766
ocks	-10767
▁vess	-10768
aus	-10769
▁Bat	-10770
▁materials,	-10771
éd	-10772
▁Cub	-10773
▁someth	-10774
▁Fox	-10775
athan	-10776
▁dx	-10777
▁chrom	-10778
▁Silver	-10779
▁outcomes	-10780
▁Executive	-10781
▁buildings	-10782
HT	-10783
▁Manager	-10784
▁violence	-10785
▁intellectual	-10786
Book	-10787
▁Ger	-10788
▁deals	-10789
▁alleged	-10790
▁scientists	-10791
3:	-10792
plement	-10793
K,	-10794
▁Uk	-10795
ore.	-10796
▁Emer	-10797
▁saved	-10798
▁통	-10799
ECT	-10800
oly	-10801
▁sich	-10802
▁stro	-10803
▁Sav	-10804
▁Tuesday,	-10805
▁genu	-10806
▁Travel	-10807
▁हि	-10808
ahan	-10809
▁exchang	-10810
▁ц	-10811
▁nerv	-10812
▁delete	-10813
نت	-10814
▁द्व	-10815
▁Hollywood	-10816
▁like,	-10817
▁horizont	-10818
▁17,	-10819
▁ris	-10820
▁officer	-10821
▁friends,	-10822
▁reven	-10823
sis	-10824
▁(v	-10825
inte	-10826
▁optimized	-10827
▁village	-10828
B)	-10829
▁coc	-10830
▁whenever	-10831
▁Rose	-10832
▁escape	-10833
K.	-10834
MM	-10835
▁१	-10836
▁“s	-10837
earing	-10838
▁posit	-10839
▁Justice	-10840
dz	-10841
▁Him	-10842
▁Ven	-10843
▁Yes	-10844
▁avec	-10845
▁liked	-10846
▁21,	-10847
▁month,	-10848
▁Analysis	-10849
▁as:	-10850
bling	-10851
▁continuing	-10852
▁myth	-10853
▁IR	-10854
▁company,	-10855
▁preferred	-10856
section	-10857
▁to:	-10858
-cent	-10859
▁mood	-10860
▁space,	-10861
▁incredibly	-10862
ilton	-10863
ometric	-10864
▁complain	-10865
ilst	-10866
▁Co.	-10867
agraph	-10868
▁surprising	-10869
SS	-10870
ur,	-10871
▁1.5	-10872
▁celeb	-10873
▁group.	-10874
▁demonstrate	-10875
▁None	-10876
▁Learning	-10877
▁Virginia	-10878
▁engagement	-10879
▁Tal	-10880
oli	-10881
isters	-10882
▁everywhere	-10883
▁coal	-10884
▁info	-10885
▁puzz	-10886
ारा	-10887
icks	-10888
front	-10889
▁protocol	-10890
▁versions	-10891
▁ta	-10892
▁ін	-10893
▁Kon	-10894
herent	-10895
▁guidance	-10896
▁replic	-10897
мери	-10898
etary	-10899
▁issues.	-10900
state	-10901
▁service,	-10902
▁NAS	-10903
▁coat	-10904
▁Ш	-10905
ability.	-10906
▁है,	-10907
▁dear	-10908
aten	-10909
▁thể	-10910
▁worse	-10911
▁before,	-10912
▁YouT	-10913
E)	-10914
ồng	-10915
eding	-10916
▁Ford	-10917
▁permit	-10918
▁photograp	-10919
▁Capt	-10920
▁Conc	-10921
obe	-10922
elah	-10923
▁3rd	-10924
▁adequ	-10925
▁Welcome	-10926
uild	-10927
▁hij	-10928
▁forming	-10929
▁awareness	-10930
apped	-10931
国家	-10932
-cont	-10933
imento	-10934
▁setup	-10935
ái	-10936
,000.	-10937
بد	-10938
▁2010,	-10939
▁story.	-10940
▁derived	-10941
▁(8	-10942
ının	-10943
▁1996	-10944
oved	-10945
▁Order	-10946
long	-10947
▁phr	-10948
▁przez	-10949
merican	-10950
▁wie	-10951
▁know.	-10952
ad.	-10953
▁pok	-10954
▁newspaper	-10955
▁rib	-10956
▁gran	-10957
▁sending	-10958
');	-10959
opher	-10960
▁portfol	-10961
':	-10962
iom	-10963
▁Dom	-10964
▁भारत	-10965
▁Heart	-10966
▁value.	-10967
▁promise	-10968
ız	-10969
▁Band	-10970
▁Student	-10971
▁officers	-10972
▁Instagram	-10973
/dx	-10974
ских	-10975
▁program,	-10976
▁site,	-10977
▁hydrox	-10978
arna	-10979
▁moral	-10980
▁latter	-10981
pie	-10982
anner	-10983
▁other,	-10984
ीन	-10985
рав	-10986
▁Army	-10987
▁revers	-10988
▁merc	-10989
-level	-10990
▁Would	-10991
▁legs	-10992
TER	-10993
2(g)	-10994
▁Buy	-10995
▁Leon	-10996
▁pharmac	-10997
An	-10998
_{n	-10999
ità	-11000
▁Function	-11001
▁advertis	-11002
▁foi	-11003
▁disput	-11004
▁weekly	-11005
▁flowers	-11006
▁1997	-11007
hm	-11008
anna	-11009
▁Rog	-11010
ằng	-11011
▁Different	-11012
▁essentially	-11013
Res	-11014
▁tact	-11015
▁purposes	-11016
كن	-11017
▁$A	-11018
leep	-11019
▁faced	-11020
▁partial	-11021
▁الل	-11022
aine	-11023
lisher	-11024
▁explo	-11025
onymous	-11026
▁diagram	-11027
▁tournament	-11028
▁thousand	-11029
▁characteristics	-11030
▁Webs	-11031
▁Wednesday,	-11032
opic	-11033
▁Impro	-11034
▁organized	-11035
oust	-11036
▁conflict	-11037
ch.	-11038
▁Map	-11039
erning	-11040
▁Zeal	-11041
▁pill	-11042
▁Radio	-11043
▁oppon	-11044
▁sensit	-11045
▁Nic	-11046
▁obviously	-11047
▁се	-11048
▁2011.	-11049
▁grams	-11050
▁“G	-11051
рова	-11052
вич	-11053
▁deck	-11054
rets	-11055
▁abstract	-11056
aram	-11057
▁Talk	-11058
▁likes	-11059
▁investors	-11060
▁parad	-11061
▁proposal	-11062
▁strategic	-11063
▁papers	-11064
▁contributions	-11065
▁cul	-11066
ansas	-11067
▁Available	-11068
10,	-11069
▁Tax	-11070
▁about.	-11071
▁cov	-11072
▁atau	-11073
ir,	-11074
▁pairs	-11075
▁delle	-11076
▁strange	-11077
▁Instead,	-11078
g,	-11079
▁destru	-11080
----------------	-11081
▁”	-11082
▁Mỹ	-11083
▁printed	-11084
▁profound	-11085
▁traveling	-11086
Sh	-11087
▁Print	-11088
▁Psych	-11089
▁historic	-11090
quis	-11091
▁cable	-11092
▁league	-11093
▁Hun	-11094
▁bin	-11095
▁event.	-11096
▁equally	-11097
▁machines	-11098
▁rely	-11099
▁regardless	-11100
▁respective	-11101
する。	-11102
wing	-11103
▁facts	-11104
▁employe	-11105
▁lessons	-11106
▁music,	-11107
▁size,	-11108
include	-11109
▁Lt	-11110
▁H2O	-11111
▁reaching	-11112
▁Wat	-11113
された	-11114
▁Summer	-11115
}=	-11116
كل	-11117
▁바	-11118
heim	-11119
▁978	-11120
▁Eric	-11121
lines	-11122
▁(The	-11123
UD	-11124
▁(g	-11125
▁Emp	-11126
▁deeply	-11127
▁handling	-11128
ds	-11129
，其	-11130
ه‌ای	-11131
▁بين	-11132
▁Looking	-11133
▁Chall	-11134
▁Jackson	-11135
ville,	-11136
▁entit	-11137
vy	-11138
الم	-11139
▁sees	-11140
▁Force	-11141
▁ED	-11142
▁Mobile	-11143
B,	-11144
aug	-11145
rary	-11146
▁cosm	-11147
▁Beaut	-11148
▁украї	-11149
▁بد	-11150
▁Fac	-11151
▁Brian	-11152
▁experiments	-11153
REE	-11154
aka	-11155
部分	-11156
▁twenty	-11157
b,	-11158
▁Ide	-11159
شک	-11160
ョン	-11161
▁Fut	-11162
▁light,	-11163
ipal	-11164
▁hack	-11165
▁greatly	-11166
anol	-11167
▁suffe	-11168
دار	-11169
▁delicious	-11170
▁school.	-11171
▁(до	-11172
ayer	-11173
▁alert	-11174
▁जाता	-11175
▁feelings	-11176
TC	-11177
illy	-11178
▁ses	-11179
プロ	-11180
▁side,	-11181
 (	-11182
▁bunch	-11183
▁Russia	-11184
▁Sov	-11185
-line	-11186
▁lives.	-11187
ability,	-11188
▁Cra	-11189
ه‌است.	-11190
▁hypothes	-11191
▁25,	-11192
duate	-11193
yw	-11194
utes	-11195
▁4x	-11196
link	-11197
▁Latin	-11198
▁instance	-11199
▁go.	-11200
▁под	-11201
▁proved	-11202
▁reporting	-11203
▁Short	-11204
▁장	-11205
▁Nature	-11206
▁energy,	-11207
stant	-11208
rapeut	-11209
▁above.	-11210
▁aggreg	-11211
ティ	-11212
-friend	-11213
hes.	-11214
▁Theore	-11215
▁period.	-11216
▁registration	-11217
init	-11218
▁crisis	-11219
▁discrim	-11220
car	-11221
rox	-11222
▁19,	-11223
adium	-11224
▁vice	-11225
orters	-11226
▁Stephen	-11227
سلام	-11228
haust	-11229
▁Recent	-11230
▁hours,	-11231
▁Feature	-11232
▁strengthen	-11233
ном	-11234
اشت	-11235
▁dock	-11236
▁debate	-11237
▁Natural	-11238
بی	-11239
ント	-11240
▁get:	-11241
▁pend	-11242
AV	-11243
▁func	-11244
▁Harry	-11245
▁intensity	-11246
▁explanation	-11247
▁Clint	-11248
▁visited	-11249
▁country,	-11250
▁professor	-11251
▁để	-11252
nung	-11253
▁jav	-11254
▁polymers	-11255
▁Со	-11256
▁affordable	-11257
▁savings	-11258
▁supplement	-11259
….	-11260
▁più	-11261
▁Clin	-11262
▁1995	-11263
▁Staff	-11264
athered	-11265
ха	-11266
▁embed	-11267
▁reactant	-11268
▁rose	-11269
LS	-11270
ept	-11271
▁Chem	-11272
stone	-11273
ät	-11274
▁Ryan	-11275
▁function,	-11276
▁dimensions	-11277
▁evaluation	-11278
▁Nguy	-11279
▁Civil	-11280
▁smell	-11281
▁claimed	-11282
▁attorney	-11283
▁ultimate	-11284
▁celebrate	-11285
▁employment	-11286
▁سا	-11287
▁Prob	-11288
▁moon	-11289
ums	-11290
ixed	-11291
▁Irish	-11292
▁fault	-11293
▁welcom	-11294
▁targeted	-11295
▁students.	-11296
atom	-11297
▁việ	-11298
▁fur	-11299
▁invited	-11300
▁students,	-11301
este	-11302
している。	-11303
▁Furthermore,	-11304
▁최	-11305
▁49	-11306
▁5:	-11307
▁Saint	-11308
▁ایر	-11309
IX	-11310
isted	-11311
▁app.	-11312
▁founded	-11313
orous	-11314
▁arms	-11315
▁activity.	-11316
▁conventional	-11317
▁نم	-11318
▁Williams	-11319
▁material.	-11320
f.	-11321
▁pre-	-11322
की	-11323
ăng	-11324
▁Roll	-11325
▁upgrad	-11326
ओं	-11327
▁α	-11328
▁Think	-11329
▁guarante	-11330
▁Broad	-11331
▁drivers	-11332
▁objective	-11333
▁collaboration	-11334
irk	-11335
▁Ariz	-11336
▁Site	-11337
▁mini	-11338
▁Story	-11339
▁d’	-11340
▁walls	-11341
نة	-11342
▁bridge	-11343
wan	-11344
File	-11345
berry	-11346
▁trên	-11347
▁abund	-11348
▁light.	-11349
▁designing	-11350
▁publication	-11351
07	-11352
iast	-11353
▁Tenn	-11354
▁atomic	-11355
▁lapt	-11356
▁Prime	-11357
يث	-11358
сті	-11359
▁Taylor	-11360
▁guitar	-11361
51	-11362
rency	-11363
▁disord	-11364
▁abandon	-11365
▁programm	-11366
त्	-11367
aming	-11368
▁Viet	-11369
▁\left	-11370
▁optimization	-11371
ot,	-11372
мы	-11373
▁ही	-11374
▁사용	-11375
▁gly	-11376
▁meets	-11377
▁ook	-11378
▁tidak	-11379
▁networks	-11380
بار	-11381
▁border	-11382
▁findings	-11383
▁Bit	-11384
▁zinc	-11385
▁Francisco	-11386
▁(b)	-11387
▁alongside	-11388
сту	-11389
▁promoting	-11390
▁교	-11391
▁arc	-11392
isher	-11393
▁knock	-11394
▁decades	-11395
▁solving	-11396
/A	-11397
hes,	-11398
▁extraord	-11399
▁quốc	-11400
▁matters	-11401
فر	-11402
ượng	-11403
▁council	-11404
▁varying	-11405
▁vert	-11406
▁talks	-11407
▁क्षेत्र	-11408
▁secondary	-11409
izza	-11410
▁laid	-11411
▁B,	-11412
est,	-11413
▁ام	-11414
▁fiber	-11415
▁Trung	-11416
▁toler	-11417
▁enables	-11418
▁checking	-11419
سان	-11420
!!!!	-11421
ases.	-11422
MR	-11423
▁Histor	-11424
bow	-11425
ゲーム	-11426
▁Hay	-11427
▁"f	-11428
▁quantity	-11429
▁є	-11430
▁않	-11431
FS	-11432
▁"t	-11433
▁Pur	-11434
ases,	-11435
bes	-11436
▁20.	-11437
▁rac	-11438
ctive	-11439
▁mann	-11440
▁eligible	-11441
List	-11442
▁dining	-11443
▁school,	-11444
▁representing	-11445
Don	-11446
ilen	-11447
▁वर्	-11448
▁"You	-11449
▁Result	-11450
رف	-11451
onde	-11452
▁Oh,	-11453
ensch	-11454
▁Computer	-11455
▁22,	-11456
▁Dat	-11457
▁lesson	-11458
am.	-11459
▁4)	-11460
▁сво	-11461
▁was,	-11462
▁Interest	-11463
▁medicine	-11464
J.	-11465
-ch	-11466
▁al.,	-11467
▁yes,	-11468
▁you?	-11469
▁foods	-11470
-)	-11471
▁축	-11472
дар	-11473
▁đầu	-11474
▁puts	-11475
write	-11476
▁chest	-11477
▁perce	-11478
▁Michigan	-11479
▁electrode	-11480
:||	-11481
ext	-11482
▁"E	-11483
aped	-11484
icted	-11485
▁Sarah	-11486
▁games.	-11487
▁procedures	-11488
r)	-11489
▁28,	-11490
▁scheme	-11491
▁covering	-11492
ois	-11493
▁No,	-11494
▁pointed	-11495
دم	-11496
тив	-11497
▁hip	-11498
▁نام	-11499
incol	-11500
▁layers	-11501
▁withdraw	-11502
▁precision	-11503
▁distributed	-11504
▁Unfortunately,	-11505
▁sizes	-11506
▁Software	-11507
▁SM	-11508
▁Northern	-11509
▁physics	-11510
PL	-11511
iser	-11512
▁(re	-11513
▁Dark	-11514
▁intelligence	-11515
Int	-11516
unc	-11517
ryst	-11518
▁anti	-11519
▁modified	-11520
▁V.	-11521
▁falling	-11522
▁Following	-11523
▁Cy	-11524
▁18.	-11525
▁Oil	-11526
▁engaged	-11527
▁providers	-11528
ERE	-11529
ela	-11530
oren	-11531
otton	-11532
▁uniqu	-11533
▁Victor	-11534
▁Supreme	-11535
oured	-11536
▁see,	-11537
▁fitness	-11538
▁glucose	-11539
erior	-11540
▁Kent	-11541
▁blocks	-11542
▁needed.	-11543
▁وه	-11544
▁grass	-11545
▁requests	-11546
Sc	-11547
▁Kingdom	-11548
▁$100	-11549
’m	-11550
گاه	-11551
▁online.	-11552
(4	-11553
▁ly	-11554
▁preparation	-11555
▁transferred	-11556
ak,	-11557
▁Secretary	-11558
▁treatments	-11559
ब्	-11560
▁생	-11561
▁Sor	-11562
▁|US	-11563
▁suffer	-11564
jet	-11565
▁mu	-11566
ain.	-11567
iego	-11568
▁fifth	-11569
▁accum	-11570
▁broke	-11571
▁displ	-11572
▁points.	-11573
▁Championship	-11574
▁원	-11575
ometry	-11576
▁group,	-11577
▁University,	-11578
ination.	-11579
▁used.	-11580
▁Forest	-11581
▁engaging	-11582
ład	-11583
▁24,	-11584
▁let’s	-11585
▁ordinary	-11586
▁1994	-11587
▁System.out.	-11588
▁cubic	-11589
.com.	-11590
▁1.0	-11591
▁LED	-11592
▁$1.	-11593
▁alk	-11594
aning	-11595
▁God,	-11596
▁sacr	-11597
▁explos	-11598
▁노	-11599
▁hire	-11600
▁2010.	-11601
▁robust	-11602
▁apparently	-11603
▁Marc	-11604
▁lag	-11605
▁hits	-11606
▁stir	-11607
▁roles	-11608
▁furniture	-11609
пі	-11610
▁intrig	-11611
▁settings	-11612
▁nutrition	-11613
وق	-11614
ibl	-11615
▁promin	-11616
▁sought	-11617
▁comprom	-11618
▁$4	-11619
▁dü	-11620
▁khi	-11621
▁bord	-11622
encing	-11623
▁bonus	-11624
▁afraid	-11625
▁Bah	-11626
▁Cru	-11627
▁TR	-11628
▁dens	-11629
▁York,	-11630
▁leather	-11631
▁Foot	-11632
▁hopes	-11633
▁world’s	-11634
▁immune	-11635
▁authorities	-11636
▁Pak	-11637
▁Clark	-11638
-by-step	-11639
▁agencies	-11640
▁focusing	-11641
▁कु	-11642
▁"the	-11643
▁admit	-11644
▁preced	-11645
▁ét	-11646
ful,	-11647
▁pix	-11648
▁Give	-11649
▁overcome	-11650
otted	-11651
▁HTML	-11652
▁cos(	-11653
▁We’re	-11654
▁destination	-11655
▁mL	-11656
▁Joh	-11657
▁Sunday,	-11658
▁travels	-11659
ơn	-11660
▁Ah,	-11661
▁Dream	-11662
▁triang	-11663
▁pleased	-11664
▁Building	-11665
об	-11666
▁presents	-11667
TR	-11668
лись	-11669
imet	-11670
▁form.	-11671
▁payments	-11672
▁impressive	-11673
▁opposition	-11674
▁fru	-11675
▁filed	-11676
▁model.	-11677
▁persons	-11678
▁COVID-19	-11679
/L	-11680
زی	-11681
owed	-11682
▁city.	-11683
▁intens	-11684
▁rating	-11685
▁ш	-11686
kow	-11687
GA	-11688
▁Charl	-11689
▁Treat	-11690
▁logic	-11691
▁rural	-11692
▁“It’s	-11693
▁zur	-11694
▁wra	-11695
▁dates	-11696
▁sentence	-11697
gre	-11698
ktop	-11699
▁Greg	-11700
▁pounds	-11701
▁dent	-11702
▁بی	-11703
▁acet	-11704
▁borrow	-11705
▁nur	-11706
▁vid	-11707
anned	-11708
▁(not	-11709
▁Edward	-11710
▁lowest	-11711
TP	-11712
▁rising	-11713
▁Several	-11714
▁States.	-11715
D)	-11716
ductor	-11717
▁intense	-11718
▁joining	-11719
▁unusual	-11720
▁entertainment	-11721
▁bid	-11722
▁Origin	-11723
▁spectrosc	-11724
o:	-11725
▁52	-11726
▁nic	-11727
usive	-11728
▁“This	-11729
▁UV	-11730
▁$50	-11731
▁assigned	-11732
ńsk	-11733
▁rhyth	-11734
▁festival	-11735
ृत	-11736
▁arts	-11737
▁الر	-11738
itative	-11739
ouch	-11740
▁good,	-11741
was	-11742
적으로	-11743
Delta	-11744
▁prohib	-11745
▁tension	-11746
▁interactive	-11747
VER	-11748
onna	-11749
क्त	-11750
▁Has	-11751
▁chronic	-11752
コミ	-11753
▁Base	-11754
terior	-11755
▁However	-11756
▁surrounded	-11757
ishes	-11758
▁undert	-11759
▁subtract	-11760
▁possibilities	-11761
▁submitted	-11762
्च	-11763
plot	-11764
ская	-11765
▁Cro	-11766
▁oven	-11767
conf	-11768
inding	-11769
iac	-11770
ikt	-11771
ثر	-11772
ディ	-11773
300	-11774
▁Albert	-11775
▁diameter	-11776
▁transportation	-11777
map	-11778
obby	-11779
▁\text{	-11780
▁succeed	-11781
▁اب	-11782
▁(12	-11783
▁pink	-11784
▁wash	-11785
▁Scient	-11786
▁(7	-11787
以及	-11788
▁roots	-11789
▁44	-11790
▁Dur	-11791
▁Description	-11792
▁로	-11793
。19	-11794
liament	-11795
▁corros	-11796
▁quadratic	-11797
▁dut	-11798
ency,	-11799
▁outstanding	-11800
▁ao	-11801
▁Gab	-11802
▁gay	-11803
bridge	-11804
ologist	-11805
ев	-11806
rade	-11807
▁10%	-11808
illion	-11809
▁Partic	-11810
ila	-11811
▁body,	-11812
▁food,	-11813
▁Rub	-11814
▁Note:	-11815
▁بل	-11816
▁سر	-11817
riers	-11818
uv	-11819
áo	-11820
-hand	-11821
▁assets	-11822
▁onder	-11823
▁assert	-11824
▁undergo	-11825
ным	-11826
▁Autom	-11827
▁campus	-11828
▁2.5	-11829
▁sail	-11830
▁gained	-11831
▁employed	-11832
▁후	-11833
اري	-11834
▁removal	-11835
фи	-11836
ाव	-11837
▁$20	-11838
▁Dub	-11839
▁nhà	-11840
▁orbital	-11841
lad	-11842
claim	-11843
▁smile	-11844
▁Strateg	-11845
▁explains	-11846
▁Cand	-11847
▁behaviour	-11848
vision	-11849
▁innovation	-11850
▁job.	-11851
▁lift	-11852
isme	-11853
▁Hold	-11854
▁Imag	-11855
anes	-11856
▁consec	-11857
▁dreams	-11858
▁magical	-11859
▁sessions	-11860
▁Bad	-11861
▁are.	-11862
ortion	-11863
▁Eastern	-11864
▁Inde	-11865
http://	-11866
▁order.	-11867
▁fert	-11868
▁Incre	-11869
▁Father	-11870
▁arguments	-11871
▁trem	-11872
▁Mexico	-11873
ينة	-11874
▁mind,	-11875
fm	-11876
▁Esc	-11877
iller	-11878
-for	-11879
▁games,	-11880
▁Carolina	-11881
▁Implement	-11882
}$,	-11883
▁stake	-11884
▁negoti	-11885
▁question,	-11886
▁investigate	-11887
▁step-by-step	-11888
▁실	-11889
학자	-11890
cup	-11891
▁reflection	-11892
ục	-11893
▁DVD	-11894
▁الث	-11895
▁favourite	-11896
▁categories	-11897
yal	-11898
тич	-11899
color	-11900
▁connections	-11901
▁YOU	-11902
▁Asian	-11903
ją	-11904
▁(*	-11905
aria	-11906
teen	-11907
▁50%	-11908
▁right?	-11909
▁materials.	-11910
▁Employ	-11911
▁Philipp	-11912
▁surgery	-11913
zc	-11914
▁10:	-11915
▁Typ	-11916
▁cogn	-11917
▁Store	-11918
▁enhanced	-11919
▁MA	-11920
▁کش	-11921
▁Training	-11922
▁c.	-11923
▁Langu	-11924
ented	-11925
sters	-11926
▁compr	-11927
ency.	-11928
▁inflam	-11929
テレ	-11930
▁friends.	-11931
▁suffering	-11932
-ray	-11933
▁prz	-11934
▁hint	-11935
▁diabet	-11936
O.	-11937
▁Edition	-11938
▁IC	-11939
▁File	-11940
▁simulations	-11941
▁정치	-11942
▁chances	-11943
طق	-11944
sten	-11945
lessly	-11946
▁crazy	-11947
▁concrete	-11948
▁dependent	-11949
▁exhibition	-11950
عض	-11951
ier,	-11952
▁peng	-11953
▁use,	-11954
▁privacy	-11955
ाषा	-11956
▁39	-11957
▁Holy	-11958
▁giant	-11959
▁hybrid	-11960
▁technology,	-11961
your	-11962
▁23,	-11963
▁Mom	-11964
▁functionality	-11965
gun	-11966
isms	-11967
amento	-11968
▁datas	-11969
▁spectac	-11970
▁answered	-11971
UM	-11972
ritten	-11973
▁denomin	-11974
к,	-11975
asm	-11976
ное	-11977
▁Age	-11978
▁adjacent	-11979
||M	-11980
▁pig	-11981
▁Size	-11982
▁Want	-11983
▁terr	-11984
hedral	-11985
▁away,	-11986
▁crystall	-11987
▁no.	-11988
▁infect	-11989
▁reader	-11990
ानी	-11991
▁trib	-11992
ğu	-11993
▁nest	-11994
function	-11995
are.	-11996
ateful	-11997
iu	-11998
▁inspe	-11999
▁conform	-12000
нь	-12001
▁months,	-12002
rob	-12003
▁उप	-12004
▁Sea	-12005
▁cann	-12006
▁brands	-12007
▁또	-12008
▁Ly	-12009
usal	-12010
▁personally	-12011
▁communicate	-12012
sv	-12013
▁IF	-12014
lass	-12015
elihood	-12016
cycl	-12017
▁suffered	-12018
ques	-12019
▁به‌	-12020
▁what's	-12021
▁Ки	-12022
▁end.	-12023
▁multi-	-12024
▁States,	-12025
▁structure.	-12026
▁dissol	-12027
▁versus	-12028
▁disp	-12029
▁Kevin	-12030
▁union	-12031
주의	-12032
erden	-12033
▁file.	-12034
▁name.	-12035
▁wound	-12036
▁내	-12037
ورد	-12038
▁Liter	-12039
▁indicated	-12040
▁complexity	-12041
BM	-12042
▁BE	-12043
▁зна	-12044
▁için	-12045
▁finger	-12046
ють	-12047
▁ages	-12048
▁justice	-12049
▁menjadi	-12050
TV	-12051
▁fraud	-12052
▁Safety	-12053
нг	-12054
ていた	-12055
▁ham	-12056
▁yards	-12057
▁level,	-12058
▁outcome	-12059
▁attended	-12060
▁controvers	-12061
про	-12062
▁Due	-12063
▁यहा	-12064
▁Bang	-12065
▁strike	-12066
▁pathway	-12067
▁she’s	-12068
▁NaOH	-12069
return	-12070
cue	-12071
nda	-12072
▁lets	-12073
▁Lincol	-12074
▁alumin	-12075
▁widgets	-12076
▁ingredient	-12077
年代	-12078
heast	-12079
▁brid	-12080
ings.	-12081
\right	-12082
▁minister	-12083
▁perimeter	-12084
ahr	-12085
▁Plat	-12086
OO	-12087
▁man,	-12088
▁thinks	-12089
cont	-12090
craft	-12091
itage	-12092
▁bang	-12093
▁وم	-12094
▁$1,	-12095
▁love,	-12096
▁26,	-12097
▁hier	-12098
▁usage	-12099
▁std::c	-12100
śc	-12101
▁무	-12102
われ	-12103
())	-12104
atu	-12105
ũng	-12106
▁vs	-12107
▁entering	-12108
ot.	-12109
▁Hart	-12110
代表	-12111
olt	-12112
▁gotten	-12113
▁faculty	-12114
▁rit	-12115
▁Here,	-12116
▁estimates	-12117
▁engineer	-12118
▁concerning	-12119
зь	-12120
▁deploy	-12121
▁applications,	-12122
ес	-12123
▁py	-12124
▁duty	-12125
iri	-12126
▁age,	-12127
omorph	-12128
re.	-12129
▁pad	-12130
ricul	-12131
q.	-12132
ily,	-12133
▁Iss	-12134
▁$a	-12135
▁Sab	-12136
▁multiplic	-12137
05	-12138
14.	-12139
▁spokes	-12140
HA	-12141
▁Annual	-12142
▁pleasure	-12143
ース	-12144
▁chip	-12145
iously	-12146
▁Queen	-12147
▁ren	-12148
▁bold	-12149
▁Marketing	-12150
▁Az	-12151
▁later.	-12152
▁propri	-12153
包括	-12154
Node	-12155
▁Hind	-12156
▁law,	-12157
्ञ	-12158
▁kur	-12159
▁casual	-12160
▁Pier	-12161
▁nước	-12162
ские	-12163
FF	-12164
▁auch	-12165
▁x,	-12166
Cont	-12167
adelph	-12168
▁edited	-12169
▁Tit	-12170
▁olan	-12171
▁sono	-12172
PM	-12173
▁CL	-12174
▁Wikip	-12175
▁substantial	-12176
api	-12177
icz	-12178
مین	-12179
▁"R	-12180
▁تع	-12181
▁मह	-12182
▁enroll	-12183
▁luxury	-12184
/b	-12185
âm	-12186
▁Х	-12187
inetic	-12188
▁money,	-12189
▁Brand	-12190
▁Studies	-12191
सा	-12192
▁này	-12193
▁gym	-12194
▁drinking	-12195
▁Democratic	-12196
istent	-12197
зы	-12198
▁you!	-12199
▁compos	-12200
▁development.	-12201
ül	-12202
ファ	-12203
▁192	-12204
KE	-12205
oir	-12206
isan	-12207
annel	-12208
▁blow	-12209
▁suddenly	-12210
▁Ohio	-12211
▁decent	-12212
▁beer	-12213
x}	-12214
▁Ges	-12215
▁exhaust	-12216
▁preparing	-12217
▁Professional	-12218
▁magazine	-12219
▁manifest	-12220
▁substitute	-12221
▁juga	-12222
▁team,	-12223
▁representative	-12224
▁nhất	-12225
▁Credit	-12226
▁answer.	-12227
NH	-12228
acional	-12229
▁observe	-12230
▁exploring	-12231
aran	-12232
▁Dall	-12233
▁qualified	-12234
url	-12235
▁Jr.	-12236
▁المت	-12237
▁Disney	-12238
▁(including	-12239
▁tutorial	-12240
▁Ч	-12241
▁bonding	-12242
▁Alt	-12243
▁Ale	-12244
▁Made	-12245
▁Smart	-12246
地区	-12247
ght	-12248
atial	-12249
▁Jord	-12250
▁acquis	-12251
وه	-12252
▁quar	-12253
▁2013,	-12254
▁areas.	-12255
▁attempts	-12256
اع	-12257
存在	-12258
▁Ban	-12259
▁Members	-12260
▁sind	-12261
▁bottle	-12262
▁situations	-12263
ifting	-12264
▁law.	-12265
▁ending	-12266
▁2009,	-12267
sung	-12268
leting	-12269
▁Value	-12270
▁childhood	-12271
▁implemented	-12272
िम	-12273
(0)	-12274
max	-12275
▁complicated	-12276
inos	-12277
agues	-12278
▁attach	-12279
xy	-12280
社会	-12281
▁:)	-12282
edge	-12283
nde	-12284
she	-12285
▁uncom	-12286
▁Illino	-12287
▁Transport	-12288
tail	-12289
▁1991	-12290
▁Meet	-12291
äll	-12292
▁gest	-12293
▁steps:	-12294
▁approxim	-12295
▁effects.	-12296
▁golden	-12297
▁design.	-12298
▁assumption	-12299
▁तथा	-12300
▁Norm	-12301
ắc	-12302
▁Türk	-12303
▁general,	-12304
▁returning	-12305
mega	-12306
▁naturally	-12307
mak	-12308
▁Mars	-12309
▁line,	-12310
WS	-12311
▁반	-12312
-min	-12313
▁house,	-12314
▁سی	-12315
wise,	-12316
▁العرب	-12317
▁affecting	-12318
▁person.	-12319
▁Speed	-12320
▁Re:	-12321
aat	-12322
isp	-12323
y's	-12324
▁Cou	-12325
▁कार	-12326
uming	-12327
▁precis	-12328
▁temporary	-12329
^{2	-12330
при	-12331
▁sek	-12332
HS	-12333
▁struck	-12334
▁paragraph	-12335
पुर	-12336
▁isot	-12337
▁trends	-12338
▁browser	-12339
▁결	-12340
ys.	-12341
▁Hi	-12342
▁styles	-12343
▁friendship	-12344
。在	-12345
ver,	-12346
▁Change	-12347
▁rapidly	-12348
▁latt	-12349
▁headed	-12350
TeX	-12351
زار	-12352
▁weapon	-12353
▁infection	-12354
ating,	-12355
▁Golden	-12356
▁tempor	-12357
▁memories	-12358
▁intention	-12359
▁од	-12360
arks	-12361
▁yaz	-12362
вя	-12363
▁I,	-12364
▁था।	-12365
antly	-12366
▁We're	-12367
▁thế	-12368
▁disk	-12369
▁issue.	-12370
▁banks	-12371
▁stimul	-12372
▁independ	-12373
▁facilitate	-12374
cor	-12375
lers	-12376
ateral	-12377
irts	-12378
▁aqu	-12379
▁minutes,	-12380
▁birds	-12381
▁Country	-12382
▁assault	-12383
▁(16	-12384
▁particular,	-12385
▁themselves.	-12386
▁aux	-12387
▁off,	-12388
▁awarded	-12389
▁equipped	-12390
/10	-12391
кого	-12392
▁11:	-12393
▁evil	-12394
▁opens	-12395
▁ligands	-12396
▁surface.	-12397
DR	-12398
onal	-12399
▁Dick	-12400
▁residential	-12401
▁propag	-12402
imo	-12403
▁dont	-12404
▁colleg	-12405
utter	-12406
▁cheese	-12407
▁<-	-12408
rapy	-12409
icket	-12410
▁font	-12411
▁Drive	-12412
▁await	-12413
▁account.	-12414
▁مق	-12415
▁Nik	-12416
▁slope	-12417
▁Capital	-12418
▁Colorado	-12419
▁unexpected	-12420
eme	-12421
▁len	-12422
▁turb	-12423
▁substance	-12424
opes	-12425
▁doi:	-12426
▁scan	-12427
▁customers.	-12428
コン	-12429
||A	-12430
▁energy.	-12431
ART	-12432
▁1992	-12433
▁provision	-12434
▁Meanwhile,	-12435
/f	-12436
تاب	-12437
▁morph	-12438
els,	-12439
▁ric	-12440
oding	-12441
▁baseball	-12442
▁(15	-12443
▁(al	-12444
▁12:	-12445
▁27,	-12446
▁behalf	-12447
▁somehow	-12448
O,	-12449
ro,	-12450
blic	-12451
▁hosting	-12452
▁decay	-12453
[input	-12454
▁mund	-12455
▁removing	-12456
ukan	-12457
ادی	-12458
burgh	-12459
▁pier	-12460
▁scores	-12461
▁disaster	-12462
▁Emb	-12463
▁attractive	-12464
ra.	-12465
a:	-12466
▁lists	-12467
نی	-12468
▁축구	-12469
▁राज्य	-12470
▁transmission	-12471
▁falls	-12472
▁mirror	-12473
▁46	-12474
▁2013.	-12475
▁first.	-12476
▁whereas	-12477
iency	-12478
▁magnitude	-12479
▁пред	-12480
▁boxes	-12481
▁strip	-12482
▁categor	-12483
▁composed	-12484
▁communications	-12485
▁43	-12486
▁rug	-12487
▁Dave	-12488
▁long,	-12489
▁Determine	-12490
ire.	-12491
▁nas	-12492
ists.	-12493
▁trop	-12494
▁powers	-12495
▁combust	-12496
▁points,	-12497
▁#include	-12498
يس	-12499
рга	-12500
ержа	-12501
▁Dun	-12502
▁Prep	-12503
▁Tell	-12504
▁lung	-12505
▁satell	-12506
▁1993	-12507
▁pays	-12508
▁yet.	-12509
▁success.	-12510
▁container	-12511
▁narrative	-12512
FA	-12513
▁분	-12514
inson	-12515
▁Working	-12516
▁inspiration	-12517
म्	-12518
▁ट	-12519
لال	-12520
°)	-12521
▁of.	-12522
▁ड	-12523
▁Bry	-12524
▁Portug	-12525
▁adopted	-12526
▁(k	-12527
ensus	-12528
▁Tech	-12529
▁dose	-12530
▁rectangular	-12531
▁Bag	-12532
▁Unt	-12533
▁arom	-12534
▁terminal	-12535
H2O	-12536
▁fond	-12537
▁anymore	-12538
▁FA	-12539
xual	-12540
▁legit	-12541
▁tired	-12542
▁voltage	-12543
▁lawy	-12544
▁1,000	-12545
▁marks	-12546
▁year’s	-12547
▁lighting	-12548
▁Major	-12549
▁matches	-12550
▁warning	-12551
▁파	-12552
▁دور	-12553
▁hence	-12554
▁grande	-12555
▁boundary	-12556
▁meetings	-12557
▁displayed	-12558
▁sections	-12559
▁mechanisms	-12560
▁safet	-12561
▁dioxide	-12562
▁regulations	-12563
▁cake	-12564
▁pret	-12565
▁genom	-12566
▁intric	-12567
▁circumstances	-12568
▁Moon	-12569
▁change,	-12570
ti	-12571
▁па	-12572
▁مج	-12573
▁या	-12574
atern	-12575
▁shoes	-12576
▁Action	-12577
▁circul	-12578
▁prosec	-12579
sl	-12580
可能	-12581
▁29,	-12582
▁Grow	-12583
▁Policy	-12584
▁ض	-12585
ışt	-12586
ved,	-12587
▁360	-12588
▁be,	-12589
▁demonstrated	-12590
▁Cos	-12591
▁کار	-12592
▁website,	-12593
||S	-12594
▁"In	-12595
▁cher	-12596
▁torn	-12597
▁Argent	-12598
-hour	-12599
▁2008,	-12600
Y,	-12601
▁17.	-12602
▁rate,	-12603
▁events,	-12604
▁staying	-12605
▁ps	-12606
▁x:	-12607
▁flying	-12608
▁metals	-12609
▁focuses	-12610
▁measurement	-12611
gov	-12612
 Zbl 	-12613
▁Drug	-12614
▁illegal	-12615
▁selecting	-12616
▁zone	-12617
letter	-12618
▁City,	-12619
▁streets	-12620
▁regulatory	-12621
har	-12622
▁controlling	-12623
▁Si	-12624
cosystem	-12625
▁possible,	-12626
地方	-12627
▁ди	-12628
uten	-12629
▁funny	-12630
▁cells.	-12631
▁heading	-12632
▁heavily	-12633
▁PH	-12634
▁Rand	-12635
02	-12636
ثل	-12637
heid	-12638
▁pandem	-12639
12,	-12640
▁sear	-12641
▁city,	-12642
▁lucky	-12643
▁sophistic	-12644
chi	-12645
\text{	-12646
[input]:	-12647
テレビ	-12648
▁нау	-12649
▁так	-12650
▁Come	-12651
anto	-12652
▁Ker	-12653
▁extraordinary	-12654
▁vectors	-12655
ync	-12656
äng	-12657
ulpt	-12658
▁stem	-12659
▁support.	-12660
▁encouraged	-12661
▁https://www.	-12662
▁Kr	-12663
▁hay	-12664
▁events.	-12665
▁constitution	-12666
ю,	-12667
ides,	-12668
ious,	-12669
▁quote	-12670
▁resort	-12671
教育	-12672
leq	-12673
▁bug	-12674
▁"p	-12675
▁"How	-12676
▁slic	-12677
▁groups,	-12678
▁stunning	-12679
nia	-12680
▁Bras	-12681
▁Conserv	-12682
▁Everyone	-12683
▁gig	-12684
▁acknowled	-12685
tery	-12686
▁الي	-12687
▁dall	-12688
▁Matthew	-12689
▁model,	-12690
▁notion	-12691
▁Zealand	-12692
▁출	-12693
udi	-12694
▁Zh	-12695
ması	-12696
▁books,	-12697
▁Ма	-12698
▁під	-12699
 года	-12700
▁ease	-12701
▁harder	-12702
▁pushed	-12703
▁solubility	-12704
▁에	-12705
RNA	-12706
вро	-12707
▁Yah	-12708
▁targets	-12709
obic	-12710
▁Bed	-12711
年に	-12712
▁frustr	-12713
▁legislation	-12714
He	-12715
rous	-12716
▁oraz	-12717
▁reputation	-12718
▁Engineering	-12719
athy	-12720
worth	-12721
▁20th	-12722
▁Altern	-12723
▁Tony	-12724
▁Monte	-12725
AND	-12726
oca	-12727
immer	-12728
▁Must	-12729
O)	-12730
äm	-12731
▁Veg	-12732
ugging	-12733
▁inflamm	-12734
▁horizontal	-12735
Id	-12736
▁현	-12737
obb	-12738
▁satisfaction	-12739
PD	-12740
▁Imm	-12741
▁نیز	-12742
▁initiative	-12743
iw	-12744
▁É	-12745
-11	-12746
▁fö	-12747
rame	-12748
▁User	-12749
▁Alice	-12750
▁manus	-12751
▁America,	-12752
▁printing	-12753
▁чи	-12754
▁Study	-12755
▁Philadelph	-12756
лек	-12757
امل	-12758
شار	-12759
that	-12760
▁Syd	-12761
▁bench	-12762
▁care.	-12763
▁laptop	-12764
▁suppose	-12765
▁“f	-12766
▁nach	-12767
ة.	-12768
ень	-12769
chron	-12770
inals	-12771
▁privile	-12772
▁confront	-12773
▁console.	-12774
▁encounter	-12775
ров	-12776
、19	-12777
quer	-12778
▁pem	-12779
▁killing	-12780
▁Lib	-12781
▁chủ	-12782
▁tape	-12783
▁infinite	-12784
▁predicted	-12785
▁Collection	-12786
مار	-12787
ches,	-12788
▁dipl	-12789
▁correl	-12790
▁calc	-12791
▁table.	-12792
이라	-12793
شنا	-12794
يين	-12795
away	-12796
▁cuts	-12797
▁Camer	-12798
▁scenari	-12799
eness	-12800
▁True	-12801
▁amid	-12802
▁assuming	-12803
▁passengers	-12804
▁00	-12805
angel	-12806
▁universal	-12807
iể	-12808
▁tin	-12809
▁Sales	-12810
_k	-12811
▁Sin	-12812
▁controls	-12813
uto	-12814
▁cow	-12815
тя	-12816
intage	-12817
▁brilliant	-12818
Hz	-12819
▁"d	-12820
▁دست	-12821
▁crash	-12822
F)	-12823
▁1989	-12824
▁Aqu	-12825
ashed	-12826
rable	-12827
rapeutic	-12828
▁artificial	-12829
▁reprodu	-12830
一个	-12831
▁09	-12832
ators,	-12833
▁enorm	-12834
▁inequality	-12835
ार्	-12836
▁automatic	-12837
oa	-12838
▁Abs	-12839
▁wal	-12840
ighth	-12841
▁Plus	-12842
▁Colleg	-12843
▁project,	-12844
時代	-12845
부터	-12846
▁dal	-12847
▁ammon	-12848
▁need.	-12849
▁with,	-12850
▁story,	-12851
▁SE	-12852
omach	-12853
▁love.	-12854
▁music.	-12855
CA	-12856
ल्	-12857
udd	-12858
▁NFL	-12859
▁weigh	-12860
▁cellular	-12861
▁applicable	-12862
▁over.	-12863
▁substrate	-12864
/M	-12865
리아	-12866
▁ар	-12867
▁وب	-12868
orte	-12869
▁voc	-12870
group	-12871
rices	-12872
▁Paper	-12873
▁Garden	-12874
/D	-12875
▁Od	-12876
▁spo	-12877
▁health.	-12878
▁utility	-12879
▁statistics	-12880
▁Ele	-12881
ности	-12882
▁galax	-12883
▁clothes	-12884
▁seriously	-12885
enda	-12886
▁remem	-12887
▁unlike	-12888
▁beneficial	-12889
▁doctors	-12890
▁са	-12891
▁Unit	-12892
▁zo	-12893
▁clim	-12894
वी	-12895
▁DE	-12896
▁GR	-12897
semble	-12898
▁steam	-12899
ard.	-12900
iary	-12901
▁free.	-12902
▁paper,	-12903
ibration	-12904
▁operators	-12905
▁expectations	-12906
uma	-12907
▁horm	-12908
▁Michel	-12909
▁ба	-12910
▁Barb	-12911
inning	-12912
oprote	-12913
▁Initial	-12914
▁Questions	-12915
▁tangent	-12916
SE	-12917
▁08	-12918
▁zn	-12919
quad	-12920
▁Additional	-12921
[0	-12922
reshold	-12923
▁Weight	-12924
▁"It's	-12925
▁á	-12926
matrix	-12927
▁Image	-12928
▁dispers	-12929
println("	-12930
gence	-12931
▁java.	-12932
▁Brazil	-12933
▁Theory	-12934
▁southern	-12935
inth	-12936
ler,	-12937
▁metric	-12938
▁reduces	-12939
خص	-12940
▁Enjoy	-12941
▁Lewis	-12942
▁same.	-12943
▁injured	-12944
idos	-12945
ijke	-12946
▁enjoying	-12947
▁measurements	-12948
rett	-12949
▁Beh	-12950
▁eggs	-12951
▁circular	-12952
olid	-12953
▁Rick	-12954
▁(e.g.	-12955
CL	-12956
child	-12957
▁Less	-12958
▁cloth	-12959
▁abilities	-12960
गर	-12961
▁Third	-12962
▁filling	-12963
▁literally	-12964
▁Editor	-12965
▁Minnes	-12966
l;	-12967
▁GP	-12968
▁He's	-12969
▁Kind	-12970
▁opposed	-12971
▁-2	-12972
▁“E	-12973
▁(3)	-12974
▁сто	-12975
▁niet	-12976
▁Cloud	-12977
▁Berlin	-12978
▁물	-12979
▁e.g.	-12980
▁instru	-12981
ること	-12982
▁He’s	-12983
▁hour.	-12984
igation	-12985
中，	-12986
▁bị	-12987
▁pocket	-12988
▁Visit	-12989
▁community,	-12990
▁Save	-12991
▁clust	-12992
▁outer	-12993
▁applies	-12994
▁development,	-12995
/P	-12996
t)	-12997
▁|A	-12998
▁lib	-12999
▁res.	-13000
ктор	-13001
▁tied	-13002
-friendly	-13003
uct	-13004
▁Cell	-13005
▁Quantum	-13006
ór	-13007
▁Cut	-13008
▁fits	-13009
^\	-13010
roc	-13011
▁(9	-13012
▁hyd	-13013
▁detection	-13014
ặc	-13015
▁박	-13016
▁inch	-13017
▁Email	-13018
▁Singap	-13019
▁questions.	-13020
aded	-13021
▁Pict	-13022
▁pressure,	-13023
▁알	-13024
oni	-13025
нії	-13026
▁Enc	-13027
ives,	-13028
▁stain	-13029
▁power.	-13030
▁subsid	-13031
▁keyword	-13032
▁permission	-13033
ipher	-13034
▁Core	-13035
▁Games	-13036
▁weird	-13037
▁raising	-13038
▁2.0	-13039
▁Jacob	-13040
▁Regist	-13041
▁routine	-13042
▁religion	-13043
umm	-13044
▁Vo	-13045
ish,	-13046
وسط	-13047
▁temp	-13048
▁eyes.	-13049
(w	-13050
▁ek	-13051
ethe	-13052
▁Jay	-13053
▁thống	-13054
▁diamond	-13055
▁Fa	-13056
▁Obs	-13057
▁hik	-13058
▁dismiss	-13059
▁worldwide	-13060
民族	-13061
nego	-13062
▁around.	-13063
にお	-13064
****	-13065
▁grace	-13066
▁course.	-13067
">	-13068
▁Pu	-13069
▁overl	-13070
aska	-13071
▁tort	-13072
▁2014,	-13073
▁Experience	-13074
Fe	-13075
big	-13076
▁2014.	-13077
▁apartment	-13078
▁infe	-13079
▁Could	-13080
▁Defin	-13081
▁5)	-13082
▁computing	-13083
▁eliminate	-13084
▁\right)	-13085
▁research,	-13086
▁72	-13087
-part	-13088
▁hand.	-13089
▁tomato	-13090
▁numerical	-13091
s'	-13092
rea	-13093
éri	-13094
▁grab	-13095
▁visitor	-13096
▁Einstein	-13097
▁∫	-13098
likely	-13099
▁implementing	-13100
قع	-13101
全国	-13102
jar	-13103
oten	-13104
▁20%	-13105
▁verd	-13106
▁Mother	-13107
▁passes	-13108
▁Barn	-13109
▁surviv	-13110
▁포	-13111
▁"m	-13112
▁Miam	-13113
▁query	-13114
▁waves	-13115
ịch	-13116
▁observations	-13117
▁Bond	-13118
▁much.	-13119
▁kilomet	-13120
▁matching	-13121
▁spell	-13122
▁proton	-13123
(m	-13124
agg	-13125
рія	-13126
▁FREE	-13127
▁hors	-13128
▁tons	-13129
▁Magaz	-13130
▁Quality	-13131
▁fascinating	-13132
сло	-13133
—and	-13134
ordnung	-13135
▁sculpt	-13136
▁posting	-13137
▁languages	-13138
isd	-13139
▁1920	-13140
▁Belg	-13141
icious	-13142
▁price.	-13143
▁series,	-13144
▁separation	-13145
▁Much	-13146
▁packages	-13147
OG	-13148
देश	-13149
▁like.	-13150
▁analyst	-13151
▁hast	-13152
▁nearest	-13153
▁morning,	-13154
ность	-13155
▁Merc	-13156
▁어	-13157
स्त	-13158
▁(-	-13159
week	-13160
▁maps	-13161
▁wake	-13162
▁writers	-13163
▁tie	-13164
ennis	-13165
▁Kong	-13166
▁satisfy	-13167
bul	-13168
▁أي	-13169
▁Alf	-13170
▁pron	-13171
▁action.	-13172
▁mathematic	-13173
▁enforcement	-13174
的な	-13175
rison	-13176
▁yet,	-13177
▁YouTube	-13178
▁dụ	-13179
▁não	-13180
iety	-13181
▁nhiều	-13182
▁curios	-13183
▁event,	-13184
▁repeat	-13185
▁야	-13186
▁"This	-13187
▁Things	-13188
▁packed	-13189
▁compute	-13190
▁лю	-13191
▁Ten	-13192
angers	-13193
▁Oxford	-13194
syl	-13195
▁Fab	-13196
▁Oak	-13197
▁precip	-13198
▁shadow	-13199
▁responses	-13200
قی	-13201
ve.	-13202
▁دول	-13203
▁Bene	-13204
▁Pick	-13205
▁melt	-13206
▁Server	-13207
▁world's	-13208
▁घ	-13209
▁강	-13210
▁kull	-13211
▁41	-13212
▁SD	-13213
▁M,	-13214
▁Dal	-13215
▁Ord	-13216
ogene	-13217
▁Nord	-13218
▁Prot	-13219
umines	-13220
▁desper	-13221
▁number.	-13222
aund	-13223
thing,	-13224
▁wireless	-13225
f,	-13226
連載	-13227
▁0)	-13228
^{2}	-13229
▁only.	-13230
▁pilot	-13231
▁cancel	-13232
▁refund	-13233
در	-13234
▁true.	-13235
中心	-13236
▁Thus	-13237
▁vacation	-13238
▁electricity	-13239
-1}	-13240
िला	-13241
▁Alab	-13242
▁votes	-13243
▁“c	-13244
▁cum	-13245
▁taxes	-13246
▁вла	-13247
▁hành	-13248
▁mild	-13249
▁roughly	-13250
▁Crit	-13251
▁developers	-13252
F.	-13253
▁**	-13254
▁bull	-13255
ocrat	-13256
gic	-13257
▁sử	-13258
orted	-13259
\frac{	-13260
▁elected	-13261
▁references	-13262
شی	-13263
ूर	-13264
▁단	-13265
▁Rh	-13266
▁19.	-13267
▁wins	-13268
▁Higher	-13269
▁decade	-13270
▁Physics	-13271
ahl	-13272
sit	-13273
▁Own	-13274
chlor	-13275
▁cinem	-13276
これ	-13277
▁(i	-13278
▁جم	-13279
▁Early	-13280
▁munic	-13281
▁though.	-13282
▁association	-13283
ён	-13284
▁불	-13285
▁summary	-13286
▁oy	-13287
rants	-13288
▁immun	-13289
▁diseases	-13290
▁consequences	-13291
▁6:	-13292
▁asks	-13293
▁Update	-13294
▁resulted	-13295
ones,	-13296
iversary	-13297
▁integrate	-13298
acon	-13299
▁Mess	-13300
▁Self	-13301
▁declared	-13302
▁tracking	-13303
▁Hans	-13304
▁tear	-13305
▁company’s	-13306
▁algorithms	-13307
▁phố	-13308
▁symmet	-13309
▁painted	-13310
▁environment,	-13311
िव	-13312
acks	-13313
ulin	-13314
▁Ever	-13315
▁loans	-13316
nection	-13317
eping	-13318
▁class.	-13319
▁sie	-13320
▁नाम	-13321
odynam	-13322
▁Living	-13323
▁Express	-13324
riving	-13325
▁franch	-13326
▁else.	-13327
▁waters	-13328
▁compass	-13329
▁Published	-13330
▁improvements	-13331
▁안	-13332
▁Фран	-13333
static	-13334
▁firms	-13335
вання	-13336
▁penal	-13337
▁measuring	-13338
زر	-13339
市）	-13340
▁че	-13341
▁calm	-13342
▁Maria	-13343
▁Patrick	-13344
▁constructed	-13345
y’s	-13346
email	-13347
▁Georgia	-13348
▁Customer	-13349
▁Washington,	-13350
ve,	-13351
▁za	-13352
▁equation,	-13353
abul	-13354
▁shots	-13355
▁finance	-13356
▁downtown	-13357
òn	-13358
ół	-13359
ah.	-13360
omega	-13361
▁grid	-13362
▁maximize	-13363
50.	-13364
الي	-13365
▁God’s	-13366
▁gender	-13367
もあ	-13368
▁PL	-13369
▁ру	-13370
▁bic	-13371
▁ket	-13372
▁murder	-13373
▁coordinate	-13374
▁maintained	-13375
▁Prim	-13376
▁gate	-13377
▁leaf	-13378
▁laser	-13379
▁surfaces	-13380
تي	-13381
торы	-13382
▁ger	-13383
▁rarely	-13384
▁moment,	-13385
▁captured	-13386
▁dramatic	-13387
▁industry,	-13388
▁contributed	-13389
▁__	-13390
ाष्ट	-13391
▁acquired	-13392
[]	-13393
eft	-13394
-scale	-13395
▁victims	-13396
▁converted	-13397
ogram	-13398
▁pushing	-13399
▁substitution	-13400
▁گر	-13401
itas	-13402
-life	-13403
▁Happy	-13404
▁47	-13405
▁são	-13406
▁precise	-13407
▁wondering	-13408
▁purchasing	-13409
▁exceptional	-13410
▁hub	-13411
▁stup	-13412
▁baking	-13413
▁Constitution	-13414
04	-13415
бе	-13416
ass,	-13417
icial	-13418
▁리	-13419
ніч	-13420
▁жи	-13421
onth	-13422
▁reads	-13423
▁stayed	-13424
▁technology.	-13425
اج	-13426
ạo	-13427
▁Round	-13428
▁deserv	-13429
========	-13430
bet	-13431
▁wrap	-13432
▁Toront	-13433
▁letting	-13434
▁Everything	-13435
▁entitled	-13436
cribed	-13437
▁Sound	-13438
▁ensures	-13439
▁Ми	-13440
▁19th	-13441
▁disrupt	-13442
▁intu	-13443
▁भाषा	-13444
▁differ	-13445
▁gathered	-13446
▁momentum	-13447
▁GM	-13448
▁desk	-13449
agonal	-13450
▁salary	-13451
▁theory,	-13452
▁configur	-13453
▁connecting	-13454
(l	-13455
▁Occ	-13456
▁ecosystem	-13457
eq	-13458
▁31,	-13459
▁bak	-13460
▁Proper	-13461
▁number,	-13462
▁Break	-13463
▁Days	-13464
▁God.	-13465
▁desert	-13466
▁closing	-13467
▁America.	-13468
▁따	-13469
ycz	-13470
ins.	-13471
▁dad	-13472
▁seats	-13473
▁Distance	-13474
▁Lem	-13475
▁rus	-13476
▁động	-13477
▁criteria	-13478
(-	-13479
-18	-13480
ков	-13481
ologies	-13482
▁programme	-13483
н,	-13484
▁Krist	-13485
▁alone.	-13486
▁another.	-13487
اح	-13488
ديد	-13489
▁dar	-13490
▁Fast	-13491
▁sobre	-13492
▁combat	-13493
SON	-13494
▁（	-13495
eted	-13496
▁bone	-13497
▁Steel	-13498
▁past,	-13499
▁trials	-13500
bell	-13501
▁merg	-13502
▁shorter	-13503
اض	-13504
ाने	-13505
▁2016,	-13506
▁scope	-13507
▁magnet	-13508
▁participating	-13509
▁kern	-13510
▁Front	-13511
ame,	-13512
▁(if	-13513
▁Prior	-13514
▁sauce	-13515
él	-13516
رن	-13517
ier.	-13518
ating.	-13519
▁weeks.	-13520
▁region.	-13521
▁jewel	-13522
▁citizen	-13523
▁Examples	-13524
▁b.	-13525
コミック	-13526
▁powder	-13527
/1	-13528
3]	-13529
▁당	-13530
▁있는	-13531
atrix	-13532
▁whilst	-13533
▁selectivity	-13534
ówn	-13535
emed	-13536
▁Vin	-13537
▁weapons	-13538
스트	-13539
▁56	-13540
▁SQL	-13541
▁Clear	-13542
-effect	-13543
pecific	-13544
▁requirement	-13545
нт	-13546
▁liver	-13547
▁LA	-13548
▁Stra	-13549
▁levels.	-13550
▁details.	-13551
▁northern	-13552
▁Environmental	-13553
▁Had	-13554
▁남	-13555
ning.	-13556
scill	-13557
▁aims	-13558
▁mixing	-13559
/n	-13560
aceut	-13561
▁viewed	-13562
वं	-13563
▁pupp	-13564
▁quan	-13565
▁ones.	-13566
▁restaurants	-13567
IE	-13568
人物	-13569
▁membrane	-13570
GE	-13571
▁’	-13572
▁-0.	-13573
▁testim	-13574
▁mortgage	-13575
esi	-13576
▁Hum	-13577
▁Sug	-13578
▁alarm	-13579
▁sevent	-13580
▁Present	-13581
▁statistical	-13582
▁Administration	-13583
▁우	-13584
▁الط	-13585
وری	-13586
▁cer	-13587
▁Shop	-13588
▁rice	-13589
▁Stone	-13590
▁signals	-13591
▁channels	-13592
linear	-13593
まで	-13594
▁Tam	-13595
▁thing,	-13596
search	-13597
▁hosted	-13598
▁tế	-13599
▁BBC	-13600
▁alloc	-13601
▁content.	-13602
▁consideration	-13603
ck,	-13604
fits	-13605
ubble	-13606
▁định	-13607
▁Palest	-13608
▁supplies	-13609
▁education,	-13610
▁play.	-13611
▁butt	-13612
ijd	-13613
▁|P	-13614
uction	-13615
▁recruit	-13616
a’s	-13617
–20	-13618
▁IM	-13619
▁lớ	-13620
ctic	-13621
ily.	-13622
▁required.	-13623
▁high-quality	-13624
▁participation	-13625
▁जिस	-13626
oidal	-13627
▁Josh	-13628
▁stamp	-13629
S)	-13630
_l	-13631
▁chains	-13632
▁catalog	-13633
▁checked	-13634
dam	-13635
ション	-13636
▁amend	-13637
▁scenario	-13638
▁Ц	-13639
▁54	-13640
▁vibrant	-13641
▁polymerization	-13642
▁Gree	-13643
▁Quick	-13644
▁ranging	-13645
file	-13646
▁Station	-13647
▁guidelines	-13648
▁hide	-13649
▁Solve	-13650
▁modify	-13651
ды	-13652
ща	-13653
▁2009.	-13654
▁brush	-13655
▁words.	-13656
[1]	-13657
uns	-13658
agan	-13659
▁Past	-13660
(X	-13661
-1,	-13662
Com	-13663
alan	-13664
riger	-13665
▁Stay	-13666
▁study,	-13667
▁struggling	-13668
▁USB	-13669
▁hug	-13670
▁sin(	-13671
▁Later	-13672
▁fishing	-13673
▁arrested	-13674
▁championship	-13675
لب	-13676
вет	-13677
▁Ce	-13678
▁स्व	-13679
▁expanded	-13680
▁तक	-13681
▁$15	-13682
▁Dor	-13683
▁designer	-13684
▁BR	-13685
▁Rac	-13686
▁tek	-13687
▁Ross	-13688
▁reaches	-13689
▁western	-13690
orship	-13691
▁minds	-13692
▁Scholar	-13693
▁difficulty	-13694
data	-13695
▁Arth	-13696
▁tale	-13697
▁waar	-13698
author	-13699
▁(such	-13700
?)	-13701
▁Iron	-13702
CR	-13703
тов	-13704
▁cooling	-13705
▁terrible	-13706
oft	-13707
▁assumed	-13708
▁effectiveness	-13709
oop	-13710
▁redox	-13711
▁renov	-13712
▁officially	-13713
▁Mos	-13714
iscal	-13715
leted	-13716
aneously	-13717
▁period,	-13718
▁everybody	-13719
jud	-13720
▁96	-13721
ucky	-13722
▁cord	-13723
▁conjug	-13724
▁pursue	-13725
▁wrong.	-13726
▁astronom	-13727
▁पह	-13728
▁Hou	-13729
▁offense	-13730
▁unlikely	-13731
ives.	-13732
▁encl	-13733
▁orange	-13734
▁elsewhere	-13735
▁platforms	-13736
وط	-13737
▁Rou	-13738
▁Gene	-13739
▁politics	-13740
それ	-13741
▁Lic	-13742
▁meny	-13743
ấp	-13744
▁yer	-13745
▁bits	-13746
attering	-13747
▁appointment	-13748
ropy	-13749
ateur	-13750
▁accordance	-13751
eki	-13752
▁az	-13753
arse	-13754
▁eller	-13755
S:	-13756
And	-13757
▁Mes	-13758
-res	-13759
▁calendar	-13760
▁offensive	-13761
_name	-13762
▁cũng	-13763
▁mean,	-13764
▁(c)	-13765
▁साथ	-13766
▁face.	-13767
▁kullan	-13768
▁certified	-13769
▁recommendations	-13770
10)	-13771
▁she's	-13772
▁fulfill	-13773
▁What’s	-13774
▁۲	-13775
-15	-13776
фор	-13777
ostic	-13778
▁Again	-13779
▁dental	-13780
seud	-13781
▁Ott	-13782
美國	-13783
▁تن	-13784
▁ges	-13785
anted	-13786
ymbol	-13787
▁Easy	-13788
▁bowl	-13789
▁recre	-13790
▁Comment	-13791
▁ले	-13792
による	-13793
▁2015,	-13794
▁Guard	-13795
▁Studio	-13796
▁field,	-13797
▁grateful	-13798
▁identifying	-13799
▁Et	-13800
▁kem	-13801
▁tone	-13802
▁Index	-13803
▁breaks	-13804
uted	-13805
▁अनु	-13806
esium	-13807
-point	-13808
▁periods	-13809
▁retrie	-13810
▁tracks	-13811
▁Indeed,	-13812
▁emerging	-13813
▁identical	-13814
▁variations	-13815
TO	-13816
▁Ka	-13817
▁Hur	-13818
▁seam	-13819
▁2015.	-13820
▁declar	-13821
IO	-13822
-cl	-13823
▁Бо	-13824
coin	-13825
vard	-13826
▁obst	-13827
▁argue	-13828
▁Pennsyl	-13829
/g	-13830
ups	-13831
▁wordt	-13832
▁layout	-13833
▁options.	-13834
ardo	-13835
▁roku	-13836
▁power,	-13837
▁\frac{1}{	-13838
▁activities.	-13839
رض	-13840
▁تح	-13841
charge	-13842
▁part,	-13843
▁indoor	-13844
4:	-13845
lyn	-13846
rus	-13847
aden	-13848
▁Som	-13849
-St	-13850
▁naz	-13851
ления	-13852
▁person,	-13853
▁Electric	-13854
▁Five	-13855
▁wooden	-13856
▁comparing	-13857
)،	-13858
▁Moh	-13859
▁disag	-13860
▁edges	-13861
▁have.	-13862
▁mayor	-13863
▁priority	-13864
▁requested	-13865
gap	-13866
▁SW	-13867
▁kg	-13868
▁सि	-13869
▁nose	-13870
▁examine	-13871
СР	-13872
éric	-13873
▁incorrect	-13874
vet	-13875
path	-13876
wich	-13877
▁mold	-13878
▁hearts	-13879
▁heating	-13880
▁hydroph	-13881
iere	-13882
▁pic	-13883
▁este	-13884
▁compatible	-13885
▁proportion	-13886
انش	-13887
▁devices.	-13888
▁simplify	-13889
3}	-13890
▁(1.	-13891
▁Gib	-13892
▁asc	-13893
▁benz	-13894
▁eager	-13895
▁f'(x)	-13896
▁angles	-13897
▁werden	-13898
▁control.	-13899
▁somebody	-13900
▁McG	-13901
▁Tok	-13902
▁orth	-13903
▁زبان	-13904
ín	-13905
aza	-13906
ifact	-13907
▁2008.	-13908
▁sensor	-13909
▁द्वारा	-13910
▁absence	-13911
▁ownership	-13912
08	-13913
ाण	-13914
nat	-13915
▁1/4	-13916
agnetic	-13917
▁operational	-13918
でき	-13919
esy	-13920
▁미국	-13921
esis	-13922
▁flaw	-13923
▁pref	-13924
▁small,	-13925
▁Content	-13926
olis	-13927
ludes	-13928
▁innoc	-13929
▁wanting	-13930
дя	-13931
지만	-13932
▁ways.	-13933
▁Hitler	-13934
06	-13935
tw	-13936
òa	-13937
▁emphasis	-13938
，並	-13939
ích	-13940
зова	-13941
▁Vice	-13942
▁guil	-13943
▁Jason	-13944
▁Photo	-13945
ascular	-13946
▁groups.	-13947
'я	-13948
▁ж	-13949
ests	-13950
▁Hong	-13951
▁Upon	-13952
▁Donald	-13953
▁subjects	-13954
▁सब	-13955
▁chỉ	-13956
▁convey	-13957
▁accompan	-13958
된다.	-13959
▁Reading	-13960
▁trigger	-13961
ція	-13962
unda	-13963
uper	-13964
▁Motor	-13965
▁yourself.	-13966
/5	-13967
وي	-13968
▁Lincoln	-13969
▁significance	-13970
hend	-13971
▁moment.	-13972
▁situation.	-13973
üz	-13974
stan	-13975
▁انت	-13976
(self	-13977
▁1930	-13978
▁می‌ک	-13979
▁Brother	-13980
▁market,	-13981
में	-13982
▁Tro	-13983
▁dik	-13984
▁Poly	-13985
▁lamp	-13986
▁issues,	-13987
▁passage	-13988
▁traveled	-13989
\;	-13990
▁2007,	-13991
▁Track	-13992
▁Clinton	-13993
اند	-13994
aceutical	-13995
न्ह	-13996
▁что	-13997
▁folk	-13998
▁kiss	-13999
▁Import	-14000
▁death.	-14001
▁incent	-14002
▁Imagine	-14003
▁Mathematics	-14004
▁거	-14005
▁Ah	-14006
▁ای	-14007
ale,	-14008
peed	-14009
achus	-14010
▁writes	-14011
▁position.	-14012
▁accurately	-14013
▁उन	-14014
▁Unlike	-14015
▁discussing	-14016
DE	-14017
To	-14018
ized,	-14019
▁eyes,	-14020
▁stages	-14021
تی	-14022
▁boss	-14023
▁Ocean	-14024
▁alive	-14025
▁holes	-14026
▁ایران	-14027
▁계	-14028
▁카	-14029
▁4th	-14030
中華	-14031
ucl	-14032
com.	-14033
enza	-14034
▁countless	-14035
其他	-14036
ене	-14037
▁gorge	-14038
width	-14039
▁acquisition	-14040
▁eer	-14041
books	-14042
▁Wolf	-14043
▁bags	-14044
▁chap	-14045
▁series.	-14046
Is	-14047
ane,	-14048
apse	-14049
ots,	-14050
▁virtually	-14051
キャ	-14052
▁Britain	-14053
▁physician	-14054
قي	-14055
۰۰	-14056
▁cats	-14057
▁aside	-14058
▁tries	-14059
▁Я	-14060
▁"Y	-14061
holders	-14062
▁harvest	-14063
boy	-14064
▁Drag	-14065
▁unem	-14066
▁Metal	-14067
▁Consult	-14068
▁accused	-14069
▁exponential	-14070
-he	-14071
▁وي	-14072
walk	-14073
▁branc	-14074
▁“What	-14075
izations	-14076
▁curricul	-14077
▁solution,	-14078
▁generating	-14079
▁베	-14080
▁Lady	-14081
▁disturb	-14082
▁역	-14083
少年	-14084
arak	-14085
▁Month	-14086
▁Multip	-14087
▁excitement	-14088
▁discussions	-14089
▁subscription	-14090
▁Hamilton	-14091
▁Bund	-14092
▁digit	-14093
▁Airport	-14094
▁displays	-14095
åg	-14096
▁ih	-14097
inden	-14098
i.org/	-14099
▁invas	-14100
▁you’d	-14101
▁loving	-14102
▁conclusion	-14103
ws	-14104
』（	-14105
▁separated	-14106
▁mathematics	-14107
▁modification	-14108
owie	-14109
pool	-14110
▁which,	-14111
▁granted	-14112
▁countries.	-14113
▁lady	-14114
▁aimed	-14115
▁theater	-14116
üy	-14117
وف	-14118
DB	-14119
ركة	-14120
हीं	-14121
▁fi	-14122
agger	-14123
▁Target	-14124
▁Within	-14125
▁suggestions	-14126
통령	-14127
▁프로	-14128
▁$25	-14129
▁thrown	-14130
▁compete	-14131
▁numbers.	-14132
▁portfolio	-14133
ходи	-14134
▁value,	-14135
eni	-14136
uum	-14137
▁hill	-14138
▁keys	-14139
▁trim	-14140
-class	-14141
▁Graph	-14142
▁scenes	-14143
▁problems,	-14144
SC	-14145
▁E°	-14146
▁جن	-14147
▁rust	-14148
▁sink	-14149
▁engin	-14150
▁worden	-14151
▁bacteria	-14152
ean	-14153
▁aest	-14154
assium	-14155
ervice	-14156
에게	-14157
gement	-14158
▁Buff	-14159
▁tire	-14160
▁done,	-14161
▁Install	-14162
law	-14163
▁دو	-14164
irus	-14165
▁Archite	-14166
▁protecting	-14167
▁remarkable	-14168
fs	-14169
ches.	-14170
asma	-14171
▁Cart	-14172
に、	-14173
▁screw	-14174
▁Cancer	-14175
▁conservative	-14176
▁대한민국	-14177
▁therapeutic	-14178
v.	-14179
ाह	-14180
ánh	-14181
thal	-14182
▁RNA	-14183
▁compliance	-14184
▁increases,	-14185
/B	-14186
▁“t	-14187
pg	-14188
ILL	-14189
▁هو	-14190
▁NaCl	-14191
▁logo	-14192
▁2016.	-14193
▁divor	-14194
▁durch	-14195
▁What's	-14196
▁choice.	-14197
▁states,	-14198
▁today’s	-14199
自然	-14200
\pi	-14201
iert	-14202
ounce	-14203
▁office.	-14204
▁meaningful	-14205
▁تأ	-14206
▁lang	-14207
▁show.	-14208
▁Season	-14209
▁Alexand	-14210
▁Advanced	-14211
man.	-14212
zione	-14213
\left(	-14214
▁Simon	-14215
▁true,	-14216
▁variet	-14217
▁techniques,	-14218
ol,	-14219
▁b)	-14220
▁Advent	-14221
▁expenses	-14222
▁advantages	-14223
ोल	-14224
▁اس	-14225
uced	-14226
ерез	-14227
▁span	-14228
▁You’ll	-14229
år	-14230
▁Shel	-14231
▁tong	-14232
▁Double	-14233
▁reactions.	-14234
▁settlement	-14235
▁exploration	-14236
As	-14237
^4	-14238
auc	-14239
▁07	-14240
▁Death	-14241
▁Wy	-14242
olly	-14243
人民共和	-14244
icking	-14245
▁Machine	-14246
▁demands	-14247
▁Corporation	-14248
▁Understanding	-14249
▁centers	-14250
重要	-14251
들이	-14252
，是	-14253
طور	-14254
▁upgrade	-14255
▁$(	-14256
▁Heat	-14257
▁loose	-14258
▁merch	-14259
▁riding	-14260
▁photography	-14261
▁MD	-14262
▁“R	-14263
▁potato	-14264
▁impacts	-14265
▁defensive	-14266
_\	-14267
z)	-14268
em,	-14269
ạng	-14270
▁cookies	-14271
▁fingers	-14272
▁clothing	-14273
▁constitu	-14274
▁7:	-14275
▁Wilson	-14276
▁표	-14277
2000	-14278
▁Oreg	-14279
▁age.	-14280
▁voted	-14281
_id	-14282
▁다음	-14283
born	-14284
▁बाद	-14285
▁thro	-14286
▁surely	-14287
▁growth.	-14288
▁FL	-14289
epsilon	-14290
cle	-14291
/200	-14292
▁beta	-14293
▁head.	-14294
bih	-14295
post	-14296
break	-14297
▁ку	-14298
▁oxide	-14299
▁scoring	-14300
▁admitted	-14301
▁oral	-14302
▁Revolution	-14303
enth	-14304
her,	-14305
tica	-14306
▁lập	-14307
▁did.	-14308
▁resil	-14309
jan	-14310
▁Job	-14311
▁itself,	-14312
▁analysis,	-14313
ière	-14314
forward	-14315
▁Output	-14316
▁PV	-14317
▁Burn	-14318
▁following:	-14319
fa	-14320
сі	-14321
▁SA	-14322
chers	-14323
▁for,	-14324
▁sorry	-14325
▁hitting	-14326
▁utilize	-14327
▁اف	-14328
▁Pháp	-14329
▁الذي	-14330
▁barely	-14331
▁Explore	-14332
▁computers	-14333
ują	-14334
чен	-14335
alet	-14336
▁medi	-14337
iscons	-14338
▁gaming	-14339
▁meters.	-14340
▁contents	-14341
▁threshold	-14342
گان	-14343
ज्ञ	-14344
acht	-14345
redict	-14346
ativity	-14347
▁mg	-14348
gamma	-14349
▁dict	-14350
▁artistic	-14351
▁corrosion	-14352
▁consecutive	-14353
gree	-14354
uits	-14355
▁mant	-14356
▁processes.	-14357
й,	-14358
▁Always	-14359
doi.org/	-14360
}{2	-14361
▁مس	-14362
star	-14363
▁efficacy	-14364
▁swimming	-14365
おり、	-14366
ował	-14367
▁Hop	-14368
▁bulk	-14369
▁sang	-14370
▁والم	-14371
▁stomach	-14372
▁loyal	-14373
▁factors,	-14374
▁variation	-14375
M)	-14376
est.	-14377
mail	-14378
▁1988	-14379
▁chiến	-14380
kat	-14381
▁99	-14382
▁of,	-14383
▁Buck	-14384
person	-14385
▁Newton	-14386
▁safely	-14387
▁voters	-14388
▁delivering	-14389
bury	-14390
▁grap	-14391
▁attending	-14392
▁molecules.	-14393
({	-14394
wick	-14395
▁portra	-14396
▁contrad	-14397
▁distric	-14398
сла	-14399
▁C,	-14400
odge	-14401
▁thy	-14402
▁shed	-14403
▁"What	-14404
▁tooth	-14405
▁friend,	-14406
▁acceleration	-14407
▁Rap	-14408
▁Niger	-14409
:\	-14410
臺灣	-14411
▁different.	-14412
月，	-14413
istance	-14414
▁marine	-14415
▁emotions	-14416
▁conclusion,	-14417
▁BC	-14418
▁CM	-14419
▁Regular	-14420
▁hanging	-14421
▁Requ	-14422
ission.	-14423
▁Press,	-14424
▁overlook	-14425
開始	-14426
rand	-14427
▁cute	-14428
itudes	-14429
▁wider	-14430
reement	-14431
▁inquir	-14432
yla	-14433
atile	-14434
▁Diam	-14435
▁cups	-14436
▁Advis	-14437
▁Six	-14438
▁food.	-14439
ouri	-14440
▁Jess	-14441
▁desktop	-14442
▁meals	-14443
▁health,	-14444
N,	-14445
▁Ве	-14446
rons	-14447
▁oct	-14448
▁theo	-14449
▁Anderson	-14450
▁Continue	-14451
▁methods,	-14452
▁Insurance	-14453
▁execution	-14454
▁residence	-14455
▁과	-14456
▁(“	-14457
ans.	-14458
▁110	-14459
▁anche	-14460
▁questions,	-14461
ova	-14462
▁XV	-14463
▁да	-14464
▁aged	-14465
▁illness	-14466
akh	-14467
▁عد	-14468
▁हुआ	-14469
▁stere	-14470
▁neighb	-14471
▁relating	-14472
मी	-14473
ized.	-14474
▁shower	-14475
▁rolling	-14476
▁product,	-14477
том	-14478
▁Ped	-14479
▁apple	-14480
▁Represent	-14481
▁reasoning	-14482
ges.	-14483
▁160	-14484
▁Hell	-14485
▁convenience	-14486
▁interpretation	-14487
▁$X	-14488
after	-14489
▁inhab	-14490
tre	-14491
▁assistant	-14492
ockey	-14493
▁suck	-14494
▁feet.	-14495
▁amongst	-14496
▁offices	-14497
▁intermediate	-14498
▁Berg	-14499
öd	-14500
▁운	-14501
，并	-14502
oro	-14503
amed	-14504
▁Wars	-14505
▁addresses	-14506
▁porn	-14507
▁Suppose	-14508
▁gifts	-14509
▁surge	-14510
▁retain	-14511
▁Website	-14512
▁imaging	-14513
▁disease.	-14514
▁collective	-14515
rho	-14516
▁SEO	-14517
nowned	-14518
ustration	-14519
▁keyboard	-14520
▁influences	-14521
▁conservation	-14522
ге	-14523
ện	-14524
tics	-14525
▁Rate	-14526
▁Grant	-14527
▁summar	-14528
▁correctly	-14529
يرة	-14530
▁yes	-14531
▁Mind	-14532
igious	-14533
▁Davis	-14534
Fi	-14535
ynt	-14536
ाना	-14537
▁مش	-14538
▁form,	-14539
anks	-14540
▁року	-14541
▁scream	-14542
▁worried	-14543
اني	-14544
arithm	-14545
▁float	-14546
▁temperature.	-14547
▁음	-14548
世紀	-14549
ning,	-14550
▁duration	-14551
▁navigate	-14552
▁grat	-14553
▁creature	-14554
▁injuries	-14555
▁θ	-14556
▁57	-14557
beit	-14558
▁bands	-14559
▁Doctor	-14560
▁Ireland	-14561
inator	-14562
▁hardly	-14563
▁century,	-14564
zt	-14565
mid	-14566
▁bund	-14567
▁phát	-14568
▁scar	-14569
▁administrative	-14570
G,	-14571
▁ALL	-14572
▁module	-14573
▁inspire	-14574
▁resolve	-14575
マン	-14576
aga	-14577
▁14:	-14578
들은	-14579
▁HP	-14580
▁Nut	-14581
▁1987	-14582
▁desp	-14583
▁quality.	-14584
▁پیش	-14585
asting	-14586
▁вой	-14587
された。	-14588
▁Dead	-14589
▁curious	-14590
▁Massachus	-14591
s’	-14592
▁هذه	-14593
▁tube	-14594
▁style.	-14595
▁enough,	-14596
SQL	-14597
—the	-14598
racle	-14599
▁decom	-14600
▁Institut	-14601
▁consistently	-14602
ęd	-14603
dat	-14604
iors	-14605
-minute	-14606
▁cultiv	-14607
▁Columbia	-14608
▁Ay	-14609
▁ln	-14610
16.	-14611
мпер	-14612
▁Naz	-14613
rowse	-14614
▁overview	-14615
▁appointed	-14616
lee	-14617
▁Jersey	-14618
▁checks	-14619
▁Discuss	-14620
▁Neg	-14621
▁Phone	-14622
▁drives	-14623
item	-14624
▁Kal	-14625
▁Mir	-14626
▁costs.	-14627
▁Introduction	-14628
aud	-14629
▁дру	-14630
▁Side	-14631
▁expense	-14632
▁PA	-14633
year	-14634
ostał	-14635
▁Lang	-14636
▁bars	-14637
▁Evalu	-14638
▁tablet	-14639
\cdot	-14640
shire	-14641
▁buck	-14642
▁även	-14643
▁Park,	-14644
▁complexes	-14645
▁optimizing	-14646
owej	-14647
▁completion	-14648
cr	-14649
ję	-14650
/11	-14651
ination,	-14652
▁P(	-14653
▁Ta	-14654
▁(CH	-14655
되어	-14656
▁|S	-14657
▁لم	-14658
▁“If	-14659
▁Deep	-14660
스의	-14661
ній	-14662
▁пи	-14663
▁plan.	-14664
▁voting	-14665
▁lub	-14666
▁managers	-14667
▁morning.	-14668
▁prominent	-14669
doi.org/10.	-14670
R,	-14671
IST	-14672
▁viên	-14673
perform	-14674
▁copies	-14675
▁survival	-14676
['	-14677
 %	-14678
fil	-14679
▁Feder	-14680
▁Indonesia	-14681
▁scholarship	-14682
-16	-14683
ik,	-14684
توان	-14685
▁Laure	-14686
▁decline	-14687
▁thereby	-14688
▁correlation	-14689
▁Ont	-14690
river	-14691
▁fool	-14692
スタ	-14693
影響	-14694
Col	-14695
imi	-14696
ues,	-14697
▁22.	-14698
asted	-14699
▁Pain	-14700
▁strain	-14701
▁women,	-14702
▁\frac{\	-14703
▁Similarly,	-14704
ORT	-14705
▁set.	-14706
▁modul	-14707
▁emissions	-14708
▁identification	-14709
▁że	-14710
▁없	-14711
eren	-14712
торо	-14713
▁farmer	-14714
▁Convers	-14715
▁Protection	-14716
III	-14717
▁대통령	-14718
ways,	-14719
▁2017.	-14720
fficients	-14721
ạn	-14722
▁ż	-14723
▁Move	-14724
enders	-14725
▁date.	-14726
▁Single	-14727
▁sensitivity	-14728
▁#1	-14729
iliz	-14730
urd	-14731
▁dw	-14732
▁Arizona	-14733
ió	-14734
▁så	-14735
▁वाल	-14736
▁bust	-14737
▁Dynam	-14738
ilation	-14739
▁venture	-14740
▁Democrats	-14741
▁volunteer	-14742
dx	-14743
)^2	-14744
▁تق	-14745
▁\to	-14746
iliki	-14747
▁Again,	-14748
▁BM	-14749
▁Agency	-14750
▁harmon	-14751
▁specify	-14752
▁highlights	-14753
出版	-14754
asts	-14755
perti	-14756
▁Still	-14757
▁استان	-14758
▁wrote:	-14759
▁precious	-14760
▁philosophy	-14761
-25	-14762
▁Во	-14763
▁C++	-14764
▁Eag	-14765
onial	-14766
ingham	-14767
▁nicht	-14768
PP	-14769
onn	-14770
▁قد	-14771
▁reason,	-14772
u)	-14773
ALL	-14774
▁как	-14775
▁film,	-14776
▁show,	-14777
▁impression	-14778
▁O'	-14779
▁s'	-14780
ється	-14781
▁pipe	-14782
▁Hawai	-14783
▁awards	-14784
▁soldiers	-14785
▁colleagues	-14786
▁Stor	-14787
▁tradem	-14788
▁microsc	-14789
▁Memorial	-14790
▁laboratory	-14791
-v	-14792
rained	-14793
▁Italy	-14794
▁carries	-14795
▁template	-14796
▁accounting	-14797
urities	-14798
▁answer:	-14799
▁glasses	-14800
▁listing	-14801
▁compensation	-14802
▁ア	-14803
▁naar	-14804
▁application.	-14805
▁Mi	-14806
▁प्रा	-14807
▁extens	-14808
▁Nothing	-14809
ourse	-14810
▁Holl	-14811
▁separately	-14812
oes	-14813
▁Hab	-14814
▁clip	-14815
▁adequate	-14816
Up	-14817
s!	-14818
st.	-14819
▁$p	-14820
▁Lyn	-14821
▁“In	-14822
▁2006,	-14823
▁swing	-14824
▁toile	-14825
▁Ministry	-14826
▁Song	-14827
▁limiting	-14828
▁53	-14829
▁bis	-14830
▁hex	-14831
▁10,000	-14832
▁Wiscons	-14833
▁operates	-14834
▁Wikipedia	-14835
國家	-14836
▁Near	-14837
▁「	-14838
ão,	-14839
▁[C	-14840
code	-14841
placement	-14842
igu	-14843
olph	-14844
▁قبل	-14845
▁books.	-14846
▁steady	-14847
▁diversity	-14848
▁property.	-14849
ден	-14850
▁dys	-14851
▁Chen	-14852
▁requirements.	-14853
▁Ü	-14854
▁BB	-14855
▁0.2	-14856
▁gau	-14857
▁We’ve	-14858
▁pathways	-14859
▁contra	-14860
学校	-14861
▁Gil	-14862
▁Gru	-14863
eland	-14864
-called	-14865
▁burning	-14866
▁restore	-14867
▁accommodate	-14868
ạt	-14869
ANT	-14870
▁dz	-14871
olen	-14872
▁maj	-14873
▁short,	-14874
▁London,	-14875
▁environ	-14876
▁'s	-14877
▁spots	-14878
▁spatial	-14879
▁enough.	-14880
▁locally	-14881
▁Om	-14882
▁лі	-14883
▁acids	-14884
▁past.	-14885
▁titles	-14886
▁implies	-14887
▁values.	-14888
▁Atlantic	-14889
но-	-14890
wear	-14891
idity	-14892
▁abroad	-14893
▁states.	-14894
▁Economic	-14895
-14	-14896
▁Pul	-14897
▁Bureau	-14898
().	-14899
im,	-14900
oids	-14901
▁25.	-14902
▁HIV	-14903
graph	-14904
▁Auto	-14905
▁Pitt	-14906
▁тако	-14907
▁Joined	-14908
▁actively	-14909
▁precisely	-14910
/7	-14911
▁요	-14912
▁A:	-14913
▁Lau	-14914
▁1945	-14915
▁bias	-14916
▁mistake	-14917
▁analytical	-14918
▁"h	-14919
▁swit	-14920
▁activated	-14921
하기	-14922
▁लग	-14923
▁Toy	-14924
▁bei	-14925
start	-14926
▁Anne	-14927
▁quyền	-14928
▁Agricult	-14929
ुन	-14930
lat	-14931
▁Sky	-14932
▁शहर	-14933
▁thời	-14934
ologia	-14935
vector	-14936
▁Trade	-14937
▁einer	-14938
F,	-14939
▁Па	-14940
▁Opp	-14941
▁diplom	-14942
▁signing	-14943
esc	-14944
によって	-14945
▁racing	-14946
▁enzymes	-14947
▁architect	-14948
isy	-14949
▁..	-14950
▁Roy	-14951
heric	-14952
▁army	-14953
▁solv	-14954
▁solely	-14955
▁smallest	-14956
N)	-14957
登場	-14958
▁پس	-14959
status	-14960
________________	-14961
ogl	-14962
▁(from	-14963
▁mouse	-14964
▁Practice	-14965
iot	-14966
्रे	-14967
Google	-14968
▁fortun	-14969
▁invite	-14970
▁happen.	-14971
}.	-14972
êm	-14973
ife.	-14974
Print	-14975
▁Росси	-14976
▁mature	-14977
▁method.	-14978
▁Cov	-14979
▁Deb	-14980
▁visits	-14981
▁conducting	-14982
▁guaranteed	-14983
▁axis	-14984
▁long.	-14985
▁sorts	-14986
▁carrier	-14987
▁liberal	-14988
zel	-14989
idas	-14990
▁Pas	-14991
▁unp	-14992
abled	-14993
attered	-14994
▁decimal	-14995
▁inverse	-14996
▁cig	-14997
▁Intel	-14998
▁this?	-14999
▁Winter	-15000
▁methane	-15001
وش	-15002
▁일본의	-15003
alent	-15004
▁Vietnam	-15005
▁embrace	-15006
03	-15007
ığı	-15008
▁Q.	-15009
▁Wa	-15010
▁أك	-15011
▁cav	-15012
▁agricultural	-15013
N.	-15014
a's	-15015
▁1986	-15016
▁fun.	-15017
▁Date:	-15018
▁tailored	-15019
▁restrictions	-15020
▁명	-15021
다는	-15022
▁combustion	-15023
ader	-15024
▁орга	-15025
_3	-15026
著作	-15027
▁8:	-15028
▁DI	-15029
▁naj	-15030
ites.	-15031
▁anth	-15032
▁founder	-15033
▁inspect	-15034
êu	-15035
ージ	-15036
▁अधिक	-15037
▁future,	-15038
▁result.	-15039
▁enterprise	-15040
fin	-15041
▁Ric	-15042
▁där	-15043
▁Below	-15044
科学	-15045
abe	-15046
▁keen	-15047
▁smoke	-15048
▁oscill	-15049
▁combinations	-15050
▁bass	-15051
▁comme	-15052
▁terse	-15053
▁छ	-15054
00.	-15055
▁synd	-15056
▁verb	-15057
-style	-15058
▁Nguyễn	-15059
▁shaped	-15060
cre	-15061
▁art,	-15062
▁jazz	-15063
▁Judge	-15064
▁here:	-15065
09	-15066
s).	-15067
▁حد	-15068
▁(1,	-15069
▁Dim	-15070
antes	-15071
▁Rain	-15072
▁Diego	-15073
▁jurisd	-15074
▁Center,	-15075
тиче	-15076
ların	-15077
▁Dean	-15078
▁hiện	-15079
▁inev	-15080
▁lain	-15081
▁Regional	-15082
▁celebration	-15083
isse	-15084
▁việc	-15085
▁cotton	-15086
▁gently	-15087
▁overse	-15088
▁evident	-15089
▁lifetime	-15090
▁라	-15091
▁Allen	-15092
igm	-15093
▁graphics	-15094
▁analysis.	-15095
▁Application	-15096
سة	-15097
-inch	-15098
▁ware	-15099
sembly	-15100
▁Spect	-15101
▁relate	-15102
▁logical	-15103
▁absorbed	-15104
▁telephone	-15105
▁implications	-15106
하다.	-15107
▁Malays	-15108
H,	-15109
▁горо	-15110
▁revol	-15111
▁mobility	-15112
▁likelihood	-15113
nym	-15114
▁(y	-15115
▁ле	-15116
Line	-15117
erna	-15118
▁Prop	-15119
▁Mechan	-15120
▁complaint	-15121
▁perception	-15122
▁“d	-15123
▁cm²	-15124
▁ink	-15125
ername	-15126
▁trigon	-15127
▁consent	-15128
▁romantic	-15129
より	-15130
-ind	-15131
▁ngày	-15132
▁Innov	-15133
▁depos	-15134
▁vapor	-15135
▁artwork	-15136
ets,	-15137
▁bases	-15138
▁daugh	-15139
▁shopp	-15140
▁skills.	-15141
▁differenti	-15142
H.	-15143
，因	-15144
ichi	-15145
▁Euro	-15146
▁exit	-15147
▁Prince	-15148
▁Regard	-15149
▁molecules,	-15150
▁physically	-15151
▁예	-15152
▁му	-15153
iley	-15154
▁المد	-15155
▁passionate	-15156
^(	-15157
ful.	-15158
▁هست	-15159
ishop	-15160
▁was.	-15161
▁screens	-15162
=2	-15163
▁observation	-15164
▁(UT	-15165
▁Tele	-15166
っている。	-15167
irable	-15168
▁std::cout	-15169
iev	-15170
ющи	-15171
▁ships	-15172
▁Future	-15173
▁Soviet	-15174
▁$y	-15175
▁Alan	-15176
▁forgotten	-15177
awn	-15178
cock	-15179
Enter	-15180
▁gang	-15181
▁cells,	-15182
▁women.	-15183
De	-15184
V.	-15185
ap.	-15186
▁ав	-15187
▁"He	-15188
▁Sau	-15189
▁“He	-15190
▁2017,	-15191
▁viewing	-15192
▁targeting	-15193
▁vin	-15194
▁सबसे	-15195
▁personnel	-15196
+2	-15197
▁66	-15198
▁opinions	-15199
aph	-15200
▁iod	-15201
▁Cover	-15202
▁Morgan	-15203
▁promising	-15204
▁presidential	-15205
وار	-15206
▁Por	-15207
▁gli	-15208
-foot	-15209
▁Exerc	-15210
▁ought	-15211
~~	-15212
page	-15213
▁Ach	-15214
▁года	-15215
▁Large	-15216
lık	-15217
st,	-15218
▁NS	-15219
▁oh	-15220
▁shapes	-15221
▁descript	-15222
▁calculation	-15223
дж	-15224
бли	-15225
ция	-15226
ổng	-15227
рита	-15228
▁1985	-15229
▁bahwa	-15230
▁print("	-15231
▁assembly	-15232
▁attitude	-15233
▁clicking	-15234
ado,	-15235
раль	-15236
▁ate	-15237
phant	-15238
▁ionic	-15239
▁prize	-15240
ges,	-15241
▁taraf	-15242
▁farmers	-15243
▁treating	-15244
▁Clean	-15245
▁refuge	-15246
▁content,	-15247
▁regression	-15248
▁incorporate	-15249
ात	-15250
▁achieving	-15251
iah	-15252
on's	-15253
▁l'A	-15254
▁Fried	-15255
▁stations	-15256
▁education.	-15257
▁considerable	-15258
</	-15259
ào	-15260
▁satisfied	-15261
aca	-15262
edu	-15263
ıld	-15264
▁51	-15265
▁bearing	-15266
▁quality,	-15267
▁determination	-15268
▁$S	-15269
oves	-15270
▁Deut	-15271
▁oldest	-15272
▁genuine	-15273
ropri	-15274
▁see.	-15275
▁worn	-15276
▁Captain	-15277
▁Together	-15278
▁degradation	-15279
▁hesit	-15280
▁depress	-15281
W.	-15282
-30	-15283
wall	-15284
▁Bron	-15285
▁Pharm	-15286
▁sock	-15287
▁Neder	-15288
▁Plant	-15289
▁size.	-15290
▁judgment	-15291
ped	-15292
ptions	-15293
▁Simpl	-15294
▁nobody	-15295
▁requiring	-15296
View	-15297
▁kJ/mol.	-15298
▁secrets	-15299
▁periodic	-15300
까지	-15301
bound	-15302
▁lean	-15303
▁وجود	-15304
irtual	-15305
▁alleg	-15306
▁treatment.	-15307
▁"J	-15308
▁iş	-15309
idem	-15310
ons,	-15311
▁Pod	-15312
uther	-15313
судар	-15314
▁codes	-15315
hu	-15316
言語	-15317
Path	-15318
▁25°C	-15319
anç	-15320
kar	-15321
odel	-15322
▁dir	-15323
▁Oct.	-15324
▁foss	-15325
▁Along	-15326
▁democ	-15327
▁wurde	-15328
▁“m	-15329
▁Alg	-15330
▁Lie	-15331
▁kay	-15332
-type	-15333
▁documentation	-15334
टी	-15335
▁shirt	-15336
▁Reserv	-15337
▁retired	-15338
다고	-15339
pend	-15340
▁sul	-15341
▁meter	-15342
▁coating	-15343
▁post.	-15344
▁phrase	-15345
▁effect.	-15346
▁vitamin	-15347
▁artifact	-15348
_1,	-15349
▁dun	-15350
overs	-15351
▁rival	-15352
▁robot	-15353
ugg	-15354
▁heal	-15355
▁cognitive	-15356
▁available,	-15357
15.	-15358
▁O’	-15359
美国	-15360
▁Begin	-15361
▁Forum	-15362
▁uncle	-15363
▁characterized	-15364
ęp	-15365
▁함	-15366
psi	-15367
ка,	-15368
▁21.	-15369
▁Adm	-15370
▁1940	-15371
▁spray	-15372
atie	-15373
▁Fer	-15374
▁دیگر	-15375
▁Private	-15376
▁scratch	-15377
s"	-15378
▁진	-15379
Data	-15380
▁Prize	-15381
▁kJ/mol)	-15382
блі	-15383
▁tv	-15384
▁Fra	-15385
▁FROM	-15386
▁far,	-15387
▁nick	-15388
ites,	-15389
▁lawyer	-15390
▁Anthony	-15391
▁affinity	-15392
▁memiliki	-15393
▁producer	-15394
▁Resources	-15395
▁شده	-15396
▁Mand	-15397
▁brok	-15398
ischer	-15399
▁aspir	-15400
▁Simple	-15401
بة	-15402
upakan	-15403
▁projects.	-15404
▁preventing	-15405
一般	-15406
后，	-15407
▁Gulf	-15408
ıştır.	-15409
▁الدول	-15410
▁Integr	-15411
▁ignore	-15412
ctr	-15413
▁drum	-15414
▁Until	-15415
▁drain	-15416
▁graphic	-15417
Val	-15418
▁reveals	-15419
▁texture	-15420
▁society.	-15421
▁conductivity	-15422
▁जन	-15423
renc	-15424
▁Hung	-15425
▁divis	-15426
issance	-15427
▁counts	-15428
▁manufacturers	-15429
PG	-15430
osi	-15431
iste	-15432
▁yılı	-15433
мерика	-15434
▁Still,	-15435
▁acetic	-15436
▁Chamber	-15437
▁emotion	-15438
▁ground.	-15439
▁company's	-15440
▁well-known	-15441
▁production.	-15442
نام	-15443
otyp	-15444
▁gaz	-15445
▁Apoll	-15446
▁analyzing	-15447
رم	-15448
▁glow	-15449
▁Blood	-15450
▁enemy	-15451
olester	-15452
▁temper	-15453
▁coordinates	-15454
▁군	-15455
▁종	-15456
イト	-15457
▁Raj	-15458
▁ranked	-15459
▁healing	-15460
▁so-called	-15461
يع	-15462
=1}	-15463
▁Say	-15464
▁dia	-15465
ators.	-15466
▁lượng	-15467
▁either.	-15468
به	-15469
으며,	-15470
▁2007.	-15471
▁Writing	-15472
/T	-15473
kg	-15474
ién	-15475
ниц	-15476
anth	-15477
▁ABC	-15478
-the-	-15479
▁memb	-15480
▁संस्	-15481
▁soon.	-15482
▁Making	-15483
▁Tennes	-15484
▁experiencing	-15485
oi	-15486
リア	-15487
민주	-15488
elli	-15489
while	-15490
ussian	-15491
▁seemingly	-15492
▁retirement	-15493
-XX	-15494
esso	-15495
▁prod	-15496
▁class,	-15497
▁obstac	-15498
▁merupakan	-15499
comp	-15500
коно	-15501
▁asym	-15502
▁plt.	-15503
▁gonna	-15504
▁realistic	-15505
▁추	-15506
ama,	-15507
▁(Fig	-15508
▁resources,	-15509
▁Body	-15510
▁fict	-15511
-inter	-15512
ified.	-15513
oenzym	-15514
▁conve	-15515
▁Illinois	-15516
zk	-15517
▁vig	-15518
▁đồng	-15519
▁Kansas	-15520
▁iconic	-15521
▁suppli	-15522
▁randomly	-15523
▁inventory	-15524
主義	-15525
ман	-15526
▁85	-15527
▁irre	-15528
▁pricing	-15529
▁tremend	-15530
lia	-15531
mek	-15532
▁Flu	-15533
▁Marg	-15534
▁mining	-15535
▁endless	-15536
▁특	-15537
3.5	-15538
▁begun	-15539
▁“There	-15540
şı	-15541
odies	-15542
▁performances	-15543
中华	-15544
▁гру	-15545
▁anch	-15546
▁chees	-15547
▁that?	-15548
▁invention	-15549
اخ	-15550
▁Arn	-15551
▁neu	-15552
▁обра	-15553
▁elder	-15554
▁junior	-15555
aid	-15556
▁Gas	-15557
▁ski	-15558
▁man.	-15559
-world	-15560
▁pizza	-15561
▁cancell	-15562
ictionary	-15563
▁Performance	-15564
راق	-15565
▁WW	-15566
hell	-15567
▁(Δ	-15568
itis	-15569
ologi	-15570
▁complement	-15571
▁Jan.	-15572
▁पूर्	-15573
▁comun	-15574
▁realm	-15575
▁Square	-15576
b)	-15577
▁설	-15578
▁Cooper	-15579
▁entries	-15580
▁Attorney	-15581
▁Official	-15582
▁Original	-15583
▁research.	-15584
▁determines	-15585
âu	-15586
▁mud	-15587
encia	-15588
▁Hydro	-15589
▁guilty	-15590
▁champion	-15591
जी	-15592
▁walks	-15593
▁intricate	-15594
▁accomplished	-15595
ків	-15596
▁Anc	-15597
▁Bor	-15598
pread	-15599
▁khác	-15600
▁they’ve	-15601
▁addressed	-15602
itals	-15603
▁car,	-15604
▁sine	-15605
▁annoy	-15606
▁Simply	-15607
▁insect	-15608
imes,	-15609
▁2018,	-15610
▁digest	-15611
▁worship	-15612
▁practice.	-15613
aver	-15614
lett	-15615
▁tam	-15616
▁Pear	-15617
▁Books	-15618
▁vocal	-15619
▁soccer	-15620
▁million.	-15621
▁consisting	-15622
▁як	-15623
iten	-15624
proof	-15625
ition,	-15626
▁Categ	-15627
bn	-15628
▁Gam	-15629
▁Host	-15630
▁Mort	-15631
▁Nov.	-15632
▁pars	-15633
▁nights	-15634
▁Theorem	-15635
▁matter.	-15636
_j	-15637
شد	-15638
▁말	-15639
ним	-15640
▁lebih	-15641
▁damaged	-15642
などの	-15643
▁Blu	-15644
▁licensed	-15645
19.	-15646
▁sé	-15647
▁fired	-15648
▁playoff	-15649
▁orbitals	-15650
▁material,	-15651
ов	-15652
▁entrance	-15653
▁expanding	-15654
▁√(	-15655
▁upt	-15656
▁nomb	-15657
▁skilled	-15658
▁workout	-15659
▁sne	-15660
▁Miller	-15661
▁style,	-15662
▁reserve	-15663
▁minimizing	-15664
▁두	-15665
▁heter	-15666
▁quart	-15667
▁backup	-15668
▁Getting	-15669
▁processed	-15670
▁조선	-15671
offe	-15672
necess	-15673
▁goals.	-15674
▁hazard	-15675
▁rubber	-15676
▁EM	-15677
▁ön	-15678
▁old,	-15679
second	-15680
▁actor	-15681
▁genes	-15682
▁Islamic	-15683
▁referen	-15684
▁Manufact	-15685
▁members.	-15686
▁creatures	-15687
itzer	-15688
▁1984	-15689
-order	-15690
▁indicating	-15691
ún	-15692
▁EC	-15693
▁iOS	-15694
isting	-15695
▁Nobel	-15696
▁Peace	-15697
▁dapat	-15698
▁reflects	-15699
▁많	-15700
▁05	-15701
amic	-15702
▁convin	-15703
hl	-15704
▁데	-15705
otype	-15706
▁seal	-15707
▁قرار	-15708
▁garlic	-15709
▁arrival	-15710
▁attorne	-15711
UC	-15712
||N	-15713
issa	-15714
▁Rot	-15715
▁forma	-15716
▁स्थित	-15717
▁singles	-15718
3月	-15719
▁Ç	-15720
▁양	-15721
▁58	-15722
▁Cộng	-15723
▁wise	-15724
▁cost.	-15725
▁wife,	-15726
▁programs.	-15727
▁5x	-15728
▁chamber	-15729
▁lengths	-15730
▁Physical	-15731
▁degrees.	-15732
▁Challenge	-15733
▁conversations	-15734
ỉnh	-15735
essed	-15736
▁penc	-15737
▁vertex	-15738
▁Samsung	-15739
▁sunlight	-15740
-ph	-15741
App	-15742
عات	-15743
▁nhân	-15744
▁cache	-15745
▁made.	-15746
▁ancest	-15747
▁values,	-15748
iệp	-15749
▁एवं	-15750
urable	-15751
▁overnight	-15752
R)	-15753
ITY	-15754
▁(ex	-15755
▁vine	-15756
▁prest	-15757
▁basis.	-15758
▁Houston	-15759
▁settled	-15760
▁releases	-15761
▁tersebut	-15762
▁technological	-15763
yo	-15764
yard	-15765
▁ذلك	-15766
Index	-15767
▁Block	-15768
▁boiling	-15769
SL	-15770
……	-15771
▁Э	-15772
nak	-15773
▁care,	-15774
▁dozen	-15775
▁Avenue	-15776
▁support,	-15777
▁language,	-15778
▁reaction:	-15779
”)	-15780
▁Bou	-15781
▁Bloom	-15782
▁page,	-15783
▁performance,	-15784
IB	-15785
é,	-15786
ढ़	-15787
orse	-15788
▁Node	-15789
▁slide	-15790
▁allerg	-15791
▁discret	-15792
학교	-15793
▁ads	-15794
▁vil	-15795
▁iPad	-15796
▁suic	-15797
[...]
